[PAD]	0
[UNK]	0
[BOS]	0
[EOS]	0
[SEP]	0
[CLS]	0
[MASK]	0
▁t	-0
he	-1
▁a	-2
in	-3
▁the	-4
er	-5
on	-6
▁,	-7
re	-8
▁s	-9
ed	-10
▁w	-11
▁o	-12
nd	-13
at	-14
▁.	-15
or	-16
en	-17
▁c	-18
it	-19
▁f	-20
is	-21
es	-22
ar	-23
▁b	-24
▁of	-25
an	-26
▁in	-27
al	-28
ing	-29
▁p	-30
as	-31
▁and	-32
▁to	-33
ic	-34
ro	-35
▁m	-36
▁d	-37
▁h	-38
ion	-39
le	-40
ou	-41
▁T	-42
▁re	-43
▁=	-44
▁S	-45
il	-46
▁A	-47
ent	-48
▁"	-49
▁1	-50
▁th	-51
st	-52
▁l	-53
el	-54
▁C	-55
▁@	-56
▁e	-57
om	-58
am	-59
▁n	-60
ad	-61
ac	-62
▁was	-63
un	-64
▁M	-65
▁on	-66
ec	-67
▁B	-68
▁The	-69
ly	-70
▁'	-71
ur	-72
et	-73
id	-74
▁g	-75
ol	-76
im	-77
▁I	-78
-@	-79
▁@-@	-80
▁for	-81
ir	-82
ig	-83
iv	-84
ot	-85
ter	-86
ut	-87
▁H	-88
▁as	-89
us	-90
ow	-91
ith	-92
ay	-93
▁2	-94
▁st	-95
▁P	-96
▁he	-97
ver	-98
ation	-99
▁with	-100
▁be	-101
▁that	-102
▁R	-103
ce	-104
▁D	-105
em	-106
▁wh	-107
▁W	-108
▁by	-109
▁F	-110
ch	-111
▁al	-112
th	-113
▁)	-114
▁(	-115
▁is	-116
ul	-117
▁con	-118
▁L	-119
▁at	-120
▁G	-121
ers	-122
ct	-123
▁N	-124
ain	-125
▁19	-126
and	-127
▁an	-128
os	-129
▁it	-130
her	-131
rom	-132
ag	-133
av	-134
um	-135
▁J	-136
est	-137
▁his	-138
▁r	-139
▁E	-140
unk	-141
▁<	-142
ri	-143
od	-144
▁from	-145
▁O	-146
ist	-147
▁com	-148
▁20	-149
ap	-150
▁pro	-151
▁v	-152
op	-153
if	-154
ore	-155
ill	-156
ld	-157
up	-158
ere	-159
ew	-160
res	-161
igh	-162
▁In	-163
ies	-164
▁de	-165
art	-166
ber	-167
ard	-168
ort	-169
▁se	-170
▁were	-171
ich	-172
ate	-173
ak	-174
all	-175
ab	-176
ant	-177
oc	-178
ud	-179
▁ex	-180
ong	-181
qu	-182
▁or	-183
▁ch	-184
gh	-185
ear	-186
ated	-187
▁pl	-188
▁sh	-189
ess	-190
ity	-191
ip	-192
▁K	-193
ive	-194
ame	-195
▁U	-196
▁had	-197
ect	-198
ack	-199
our	-200
▁St	-201
▁su	-202
red	-203
ast	-204
se	-205
▁which	-206
▁k	-207
ment	-208
▁le	-209
ge	-210
und	-211
▁are	-212
ov	-213
ian	-214
ial	-215
▁not	-216
▁sp	-217
ell	-218
ost	-219
▁y	-220
ight	-221
▁tr	-222
ord	-223
ust	-224
ary	-225
ia	-226
ther	-227
rit	-228
pt	-229
ine	-230
▁3	-231
oun	-232
ical	-233
ave	-234
pp	-235
▁Ch	-236
▁200	-237
▁un	-238
cc	-239
▁inc	-240
fter	-241
ould	-242
▁but	-243
irst	-244
ish	-245
ous	-246
ions	-247
▁V	-248
te	-249
▁comp	-250
so	-251
ff	-252
ide	-253
▁whe	-254
▁ro	-255
ure	-256
▁ar	-257
▁cont	-258
ra	-259
ub	-260
▁;	-261
▁first	-262
ign	-263
▁cl	-264
wo	-265
▁her	-266
ie	-267
▁its	-268
▁their	-269
ue	-270
▁–	-271
og	-272
orm	-273
ass	-274
ork	-275
▁int	-276
00	-277
▁res	-278
▁:	-279
ok	-280
▁He	-281
ater	-282
▁also	-283
▁ab	-284
▁ad	-285
ome	-286
ond	-287
out	-288
age	-289
ry	-290
mer	-291
ire	-292
hed	-293
▁us	-294
du	-295
▁4	-296
ime	-297
low	-298
ru	-299
▁per	-300
per	-301
ans	-302
▁who	-303
▁one	-304
▁have	-305
▁5	-306
▁Th	-307
▁sc	-308
pl	-309
ally	-310
own	-311
ile	-312
ance	-313
▁rec	-314
▁18	-315
ted	-316
.@	-317
▁@.@	-318
▁two	-319
ition	-320
ugh	-321
ree	-322
ence	-323
uring	-324
port	-325
▁been	-326
▁part	-327
▁bec	-328
ts	-329
▁has	-330
ice	-331
iz	-332
▁ag	-333
▁app	-334
▁Al	-335
▁201	-336
,@	-337
▁@,@	-338
ough	-339
▁en	-340
▁j	-341
▁dis	-342
lud	-343
▁over	-344
▁this	-345
▁ser	-346
ory	-347
▁year	-348
ely	-349
ations	-350
are	-351
ember	-352
ction	-353
ound	-354
ke	-355
▁off	-356
▁after	-357
▁up	-358
ach	-359
▁play	-360
▁des	-361
land	-362
▁It	-363
ace	-364
over	-365
ark	-366
ric	-367
▁they	-368
▁out	-369
▁te	-370
ade	-371
▁other	-372
act	-373
▁man	-374
ib	-375
▁im	-376
ult	-377
▁includ	-378
ress	-379
ced	-380
ail	-381
urn	-382
▁Y	-383
wn	-384
▁would	-385
ens	-386
ind	-387
▁time	-388
▁into	-389
man	-390
▁pre	-391
ang	-392
one	-393
▁On	-394
ep	-395
ward	-396
▁Un	-397
▁him	-398
▁we	-399
oin	-400
we	-401
ite	-402
ates	-403
▁she	-404
▁6	-405
les	-406
ren	-407
▁ev	-408
able	-409
▁att	-410
ased	-411
ilm	-412
ited	-413
amp	-414
end	-415
ever	-416
ied	-417
ase	-418
▁comm	-419
ors	-420
▁inter	-421
rough	-422
ount	-423
oy	-424
form	-425
ons	-426
▁all	-427
▁more	-428
▁work	-429
ood	-430
ces	-431
▁7	-432
ered	-433
old	-434
aw	-435
ings	-436
vel	-437
▁Ar	-438
ild	-439
▁new	-440
▁sec	-441
▁An	-442
▁bet	-443
ick	-444
ose	-445
▁when	-446
▁film	-447
inal	-448
ve	-449
▁fe	-450
ents	-451
ious	-452
ake	-453
way	-454
aus	-455
fer	-456
att	-457
reat	-458
ft	-459
▁cons	-460
iss	-461
round	-462
▁8	-463
▁Mar	-464
▁rem	-465
gan	-466
rib	-467
rop	-468
ved	-469
ason	-470
▁dec	-471
▁during	-472
▁und	-473
orth	-474
ubl	-475
▁again	-476
hip	-477
▁most	-478
▁game	-479
▁9	-480
▁pr	-481
▁As	-482
▁them	-483
▁199	-484
▁only	-485
oth	-486
ween	-487
▁ear	-488
ix	-489
ollow	-490
▁than	-491
ath	-492
▁sup	-493
▁ne	-494
ational	-495
fore	-496
▁Se	-497
▁New	-498
▁about	-499
▁produ	-500
ob	-501
▁cent	-502
▁kn	-503
tern	-504
▁ret	-505
▁char	-506
▁song	-507
▁can	-508
outh	-509
ug	-510
▁between	-511
▁later	-512
ey	-513
▁rele	-514
▁under	-515
▁three	-516
ict	-517
orn	-518
▁col	-519
▁act	-520
hn	-521
ton	-522
iew	-523
▁00	-524
aid	-525
ron	-526
▁through	-527
als	-528
▁qu	-529
orld	-530
▁num	-531
▁En	-532
ook	-533
▁so	-534
▁acc	-535
▁me	-536
▁rel	-537
▁while	-538
▁end	-539
meric	-540
ank	-541
▁Americ	-542
lect	-543
▁fl	-544
ters	-545
▁pos	-546
▁Le	-547
ral	-548
ock	-549
▁sub	-550
▁ass	-551
▁where	-552
ular	-553
ating	-554
▁ver	-555
▁day	-556
▁reg	-557
▁second	-558
▁bu	-559
ener	-560
▁made	-561
▁Com	-562
ames	-563
ision	-564
ived	-565
ck	-566
▁pe	-567
▁record	-568
hes	-569
▁def	-570
bum	-571
▁four	-572
▁Re	-573
son	-574
▁gro	-575
▁follow	-576
▁season	-577
▁000	-578
▁form	-579
▁some	-580
▁ep	-581
▁such	-582
ished	-583
▁am	-584
▁mov	-585
ool	-586
▁before	-587
ained	-588
▁mus	-589
▁there	-590
▁writ	-591
ph	-592
▁Jo	-593
▁Sp	-594
▁spec	-595
ics	-596
ike	-597
▁10	-598
▁years	-599
▁team	-600
iel	-601
▁sy	-602
io	-603
hen	-604
ode	-605
▁This	-606
▁At	-607
▁/	-608
ident	-609
ual	-610
▁lar	-611
▁album	-612
▁ind	-613
owever	-614
ily	-615
▁used	-616
▁ent	-617
▁gr	-618
ros	-619
ning	-620
▁call	-621
▁sur	-622
ific	-623
▁high	-624
▁ac	-625
▁publ	-626
ury	-627
▁Sh	-628
▁being	-629
▁epis	-630
▁then	-631
velop	-632
▁do	-633
▁loc	-634
led	-635
▁exp	-636
ten	-637
ife	-638
▁against	-639
▁17	-640
▁inv	-641
aj	-642
other	-643
ris	-644
▁pres	-645
▁bl	-646
anc	-647
▁number	-648
▁show	-649
▁After	-650
▁charac	-651
▁0	-652
▁sever	-653
▁add	-654
▁set	-655
▁co	-656
ince	-657
ane	-658
▁became	-659
▁rece	-660
ject	-661
▁Brit	-662
ause	-663
▁lead	-664
▁perform	-665
▁including	-666
▁br	-667
▁sing	-668
▁no	-669
▁—	-670
ars	-671
ather	-672
ek	-673
erm	-674
▁United	-675
▁found	-676
▁well	-677
ines	-678
▁rep	-679
▁mon	-680
▁pol	-681
air	-682
▁back	-683
▁both	-684
▁series	-685
▁198	-686
▁cap	-687
▁Sc	-688
ale	-689
▁15	-690
▁12	-691
ober	-692
▁ship	-693
ier	-694
ower	-695
ement	-696
ired	-697
ures	-698
▁Con	-699
its	-700
▁main	-701
▁Wh	-702
ivers	-703
▁194	-704
▁She	-705
ert	-706
▁min	-707
ley	-708
pen	-709
overn	-710
▁did	-711
iet	-712
▁go	-713
der	-714
▁cre	-715
elf	-716
▁develop	-717
▁imp	-718
▁Eng	-719
ram	-720
ities	-721
▁long	-722
▁met	-723
ik	-724
ann	-725
iver	-726
ised	-727
any	-728
ven	-729
olog	-730
ting	-731
ared	-732
▁John	-733
▁mill	-734
ird	-735
▁em	-736
▁air	-737
uch	-738
ful	-739
▁mat	-740
▁episode	-741
tend	-742
az	-743
irect	-744
ll	-745
▁said	-746
▁stud	-747
▁many	-748
▁bro	-749
ute	-750
▁dep	-751
▁could	-752
ative	-753
▁orig	-754
▁car	-755
▁16	-756
▁contin	-757
▁war	-758
▁several	-759
▁American	-760
though	-761
▁dif	-762
▁inst	-763
▁pop	-764
▁Ind	-765
▁Cl	-766
ash	-767
ouse	-768
ield	-769
▁known	-770
▁197	-771
emb	-772
ise	-773
ually	-774
▁196	-775
ty	-776
▁Aust	-777
▁conc	-778
til	-779
▁Br	-780
▁11	-781
iam	-782
view	-783
ins	-784
▁War	-785
erson	-786
▁ob	-787
ued	-788
▁return	-789
▁began	-790
▁any	-791
▁sm	-792
▁comple	-793
▁design	-794
▁desc	-795
▁sign	-796
ern	-797
ople	-798
chool	-799
ross	-800
ange	-801
my	-802
▁est	-803
▁Fr	-804
aking	-805
ccess	-806
▁trans	-807
▁prov	-808
▁De	-809
▁feat	-810
oot	-811
hy	-812
▁inf	-813
▁run	-814
▁early	-815
▁art	-816
▁music	-817
▁own	-818
▁dist	-819
ah	-820
▁near	-821
▁released	-822
ided	-823
▁until	-824
▁Bl	-825
rap	-826
▁called	-827
ized	-828
ism	-829
▁eff	-830
imes	-831
▁Col	-832
▁US	-833
▁resp	-834
▁bel	-835
▁pass	-836
une	-837
ured	-838
stem	-839
▁fin	-840
▁Z	-841
ially	-842
▁May	-843
ists	-844
▁down	-845
ution	-846
enn	-847
▁disc	-848
▁crit	-849
ments	-850
osed	-851
▁direct	-852
▁gener	-853
▁along	-854
xt	-855
▁ins	-856
▁million	-857
▁prev	-858
▁British	-859
▁Ger	-860
▁group	-861
▁offic	-862
▁fam	-863
▁13	-864
▁these	-865
ajor	-866
ium	-867
ull	-868
▁mod	-869
▁may	-870
▁$	-871
ax	-872
▁open	-873
cept	-874
▁mil	-875
eb	-876
▁poin	-877
els	-878
ains	-879
▁Ad	-880
▁land	-881
▁sim	-882
gest	-883
▁hist	-884
▁govern	-885
▁Aug	-886
ger	-887
▁Sept	-888
▁Be	-889
▁success	-890
▁str	-891
▁September	-892
▁August	-893
erv	-894
▁States	-895
▁World	-896
▁oper	-897
▁count	-898
▁attack	-899
ible	-900
uc	-901
▁gu	-902
▁same	-903
▁use	-904
▁Ap	-905
wards	-906
▁describ	-907
▁people	-908
ets	-909
▁character	-910
aced	-911
▁because	-912
▁For	-913
amed	-914
ink	-915
▁All	-916
aining	-917
▁Is	-918
▁like	-919
yp	-920
▁serv	-921
▁14	-922
▁Ju	-923
▁around	-924
▁though	-925
▁start	-926
aving	-927
▁195	-928
▁ed	-929
▁km	-930
▁win	-931
▁const	-932
▁took	-933
▁occ	-934
ues	-935
▁Austral	-936
ruct	-937
▁batt	-938
▁Pl	-939
▁Oct	-940
▁German	-941
ner	-942
▁ann	-943
▁support	-944
ped	-945
▁Nov	-946
▁following	-947
▁dr	-948
▁six	-949
ove	-950
▁north	-951
▁Tr	-952
▁ele	-953
▁193	-954
▁However	-955
▁system	-956
▁appear	-957
▁Q	-958
▁final	-959
▁received	-960
▁class	-961
uss	-962
▁Car	-963
▁October	-964
▁consid	-965
▁prom	-966
▁head	-967
ives	-968
ants	-969
▁Dec	-970
▁191	-971
ility	-972
▁ever	-973
▁state	-974
▁build	-975
ene	-976
▁each	-977
ically	-978
▁five	-979
ling	-980
▁adv	-981
▁ext	-982
anu	-983
▁Pro	-984
▁century	-985
▁York	-986
▁aut	-987
▁area	-988
▁var	-989
ret	-990
▁will	-991
▁They	-992
▁small	-993
ately	-994
▁bo	-995
rol	-996
▁partic	-997
▁life	-998
gin	-999
▁North	-1000
iving	-1001
▁report	-1002
get	-1003
▁]	-1004
▁[	-1005
ored	-1006
tle	-1007
▁June	-1008
oss	-1009
▁By	-1010
ording	-1011
ril	-1012
▁city	-1013
▁Me	-1014
▁major	-1015
▁week	-1016
▁King	-1017
▁public	-1018
ians	-1019
▁mar	-1020
▁July	-1021
▁%	-1022
ission	-1023
▁conf	-1024
▁band	-1025
ection	-1026
▁ref	-1027
▁November	-1028
med	-1029
urch	-1030
▁Har	-1031
▁rest	-1032
▁Comm	-1033
▁world	-1034
▁since	-1035
▁Will	-1036
inc	-1037
▁med	-1038
▁single	-1039
ina	-1040
raft	-1041
▁April	-1042
esp	-1043
por	-1044
lish	-1045
▁det	-1046
▁March	-1047
▁just	-1048
ried	-1049
▁last	-1050
▁Pr	-1051
ected	-1052
omet	-1053
hest	-1054
ural	-1055
ional	-1056
▁turn	-1057
▁Ed	-1058
ively	-1059
▁allow	-1060
aim	-1061
▁Mc	-1062
▁hel	-1063
▁..	-1064
ilt	-1065
▁Can	-1066
▁30	-1067
ient	-1068
▁Gr	-1069
▁arr	-1070
▁po	-1071
▁left	-1072
ague	-1073
▁large	-1074
▁line	-1075
▁differ	-1076
idge	-1077
▁care	-1078
▁South	-1079
▁Ge	-1080
cl	-1081
▁south	-1082
▁During	-1083
▁...	-1084
ales	-1085
ified	-1086
▁book	-1087
▁vers	-1088
▁school	-1089
empt	-1090
▁December	-1091
▁third	-1092
rist	-1093
avy	-1094
▁sl	-1095
ble	-1096
▁incre	-1097
ats	-1098
▁Or	-1099
▁month	-1100
▁due	-1101
▁appro	-1102
ined	-1103
▁played	-1104
▁much	-1105
▁event	-1106
▁25	-1107
▁if	-1108
▁another	-1109
rote	-1110
▁Janu	-1111
▁January	-1112
▁included	-1113
▁192	-1114
▁what	-1115
row	-1116
▁based	-1117
▁place	-1118
eng	-1119
▁short	-1120
aged	-1121
▁II	-1122
by	-1123
▁government	-1124
▁expl	-1125
▁Ph	-1126
ograp	-1127
▁person	-1128
▁wrote	-1129
▁When	-1130
▁track	-1131
ony	-1132
ball	-1133
▁camp	-1134
▁old	-1135
▁tit	-1136
▁name	-1137
apan	-1138
▁death	-1139
▁bre	-1140
ently	-1141
alf	-1142
▁port	-1143
▁ph	-1144
ages	-1145
▁Eu	-1146
▁elect	-1147
▁Japan	-1148
▁won	-1149
ience	-1150
ple	-1151
▁child	-1152
ne	-1153
▁lit	-1154
▁prot	-1155
▁kill	-1156
▁eng	-1157
▁story	-1158
▁prog	-1159
ideo	-1160
▁power	-1161
oad	-1162
▁review	-1163
ody	-1164
▁vis	-1165
▁home	-1166
ital	-1167
▁led	-1168
▁Bro	-1169
▁described	-1170
▁previous	-1171
▁requ	-1172
▁cour	-1173
▁family	-1174
▁gun	-1175
▁Te	-1176
oman	-1177
▁way	-1178
ott	-1179
▁named	-1180
▁right	-1181
▁now	-1182
urther	-1183
▁dem	-1184
▁even	-1185
iven	-1186
▁make	-1187
iod	-1188
▁Mus	-1189
▁men	-1190
embers	-1191
ilar	-1192
▁leg	-1193
ged	-1194
iversity	-1195
▁attempt	-1196
ister	-1197
reen	-1198
▁best	-1199
ention	-1200
itions	-1201
omin	-1202
▁repl	-1203
ivision	-1204
▁opp	-1205
▁100	-1206
▁games	-1207
cy	-1208
rench	-1209
aff	-1210
ached	-1211
▁term	-1212
▁Gu	-1213
▁command	-1214
▁top	-1215
ior	-1216
▁hand	-1217
▁poss	-1218
ival	-1219
▁belie	-1220
▁very	-1221
▁dam	-1222
▁those	-1223
▁His	-1224
▁And	-1225
ness	-1226
▁Feb	-1227
ont	-1228
▁Europ	-1229
mp	-1230
ruary	-1231
▁February	-1232
▁iss	-1233
▁still	-1234
▁organ	-1235
▁next	-1236
▁species	-1237
▁Fl	-1238
▁effect	-1239
▁view	-1240
riend	-1241
ances	-1242
self	-1243
▁Christ	-1244
▁par	-1245
▁capt	-1246
▁There	-1247
ps	-1248
▁National	-1249
aken	-1250
▁original	-1251
oci	-1252
ature	-1253
▁spe	-1254
ences	-1255
▁water	-1256
▁addition	-1257
▁join	-1258
ox	-1259
ched	-1260
▁Europe	-1261
▁list	-1262
sh	-1263
▁We	-1264
ery	-1265
▁within	-1266
▁period	-1267
▁members	-1268
lu	-1269
▁mark	-1270
▁held	-1271
▁built	-1272
▁French	-1273
▁deb	-1274
▁exper	-1275
▁release	-1276
▁2010	-1277
▁although	-1278
▁late	-1279
▁former	-1280
hor	-1281
▁great	-1282
▁match	-1283
▁Bar	-1284
rew	-1285
alk	-1286
lev	-1287
▁sold	-1288
▁dest	-1289
augh	-1290
uted	-1291
▁cur	-1292
ney	-1293
tended	-1294
▁video	-1295
line	-1296
▁caus	-1297
▁storm	-1298
ented	-1299
▁West	-1300
ards	-1301
▁cover	-1302
ring	-1303
▁init	-1304
▁Par	-1305
▁role	-1306
▁21	-1307
ropical	-1308
▁William	-1309
▁came	-1310
▁estab	-1311
▁av	-1312
▁tri	-1313
▁days	-1314
▁result	-1315
▁Am	-1316
af	-1317
▁mid	-1318
▁control	-1319
ption	-1320
▁stand	-1321
▁real	-1322
▁polit	-1323
ulation	-1324
ides	-1325
▁however	-1326
ech	-1327
ler	-1328
▁Her	-1329
itary	-1330
au	-1331
oon	-1332
hel	-1333
▁2008	-1334
▁cr	-1335
▁my	-1336
▁2009	-1337
▁prop	-1338
▁few	-1339
▁Min	-1340
▁town	-1341
▁X	-1342
aster	-1343
▁wind	-1344
▁Geor	-1345
ense	-1346
▁you	-1347
▁side	-1348
▁tw	-1349
▁24	-1350
▁continued	-1351
▁often	-1352
akes	-1353
atic	-1354
na	-1355
▁equ	-1356
▁local	-1357
▁sk	-1358
▁2011	-1359
▁Ear	-1360
▁post	-1361
▁among	-1362
▁Man	-1363
▁say	-1364
▁similar	-1365
ham	-1366
ruction	-1367
tal	-1368
▁Air	-1369
omb	-1370
▁Char	-1371
▁Mich	-1372
▁claim	-1373
ead	-1374
▁hum	-1375
elt	-1376
estern	-1377
gy	-1378
▁&	-1379
▁England	-1380
omen	-1381
side	-1382
ator	-1383
reet	-1384
▁No	-1385
▁different	-1386
br	-1387
▁sug	-1388
read	-1389
ract	-1390
let	-1391
▁beh	-1392
▁del	-1393
▁further	-1394
▁typ	-1395
ying	-1396
ese	-1397
▁sent	-1398
▁Rec	-1399
▁level	-1400
ves	-1401
▁considered	-1402
▁take	-1403
▁Dav	-1404
▁law	-1405
ology	-1406
▁fre	-1407
▁2007	-1408
▁22	-1409
ops	-1410
▁career	-1411
eter	-1412
▁One	-1413
par	-1414
ots	-1415
▁production	-1416
esc	-1417
▁half	-1418
urs	-1419
uck	-1420
▁Park	-1421
▁having	-1422
ices	-1423
▁City	-1424
ampions	-1425
ms	-1426
▁English	-1427
▁Acc	-1428
app	-1429
▁El	-1430
ung	-1431
▁moved	-1432
▁east	-1433
▁road	-1434
▁mag	-1435
▁ant	-1436
▁Co	-1437
yl	-1438
▁without	-1439
▁every	-1440
▁west	-1441
▁Although	-1442
me	-1443
ering	-1444
rodu	-1445
▁appe	-1446
▁player	-1447
▁2012	-1448
▁position	-1449
▁become	-1450
▁plan	-1451
▁Cent	-1452
▁history	-1453
▁version	-1454
▁conv	-1455
▁cor	-1456
ondon	-1457
▁Ang	-1458
ront	-1459
bo	-1460
▁Count	-1461
▁cast	-1462
▁influ	-1463
▁London	-1464
▁el	-1465
▁house	-1466
vers	-1467
ches	-1468
▁sound	-1469
ford	-1470
▁commun	-1471
ones	-1472
yle	-1473
▁23	-1474
▁fore	-1475
▁Cal	-1476
▁suggest	-1477
▁club	-1478
ize	-1479
▁strong	-1480
▁invol	-1481
▁Batt	-1482
▁written	-1483
irc	-1484
atter	-1485
▁190	-1486
▁With	-1487
▁less	-1488
▁bas	-1489
aul	-1490
▁stat	-1491
▁announ	-1492
utes	-1493
▁foot	-1494
▁River	-1495
▁order	-1496
ape	-1497
▁refer	-1498
iety	-1499
rest	-1500
▁Canad	-1501
▁prof	-1502
craft	-1503
▁point	-1504
sequ	-1505
▁given	-1506
▁aff	-1507
▁tem	-1508
▁low	-1509
▁trad	-1510
▁hig	-1511
▁want	-1512
▁University	-1513
▁gave	-1514
▁Gener	-1515
▁rad	-1516
iqu	-1517
▁ke	-1518
rent	-1519
▁far	-1520
▁import	-1521
▁never	-1522
▁While	-1523
▁chang	-1524
▁defe	-1525
ailed	-1526
ald	-1527
▁returned	-1528
▁pat	-1529
▁soc	-1530
ories	-1531
▁repres	-1532
▁total	-1533
▁vict	-1534
▁tro	-1535
▁fact	-1536
▁good	-1537
▁High	-1538
▁Pol	-1539
▁company	-1540
▁went	-1541
▁country	-1542
aly	-1543
▁comb	-1544
▁fire	-1545
▁friend	-1546
cess	-1547
▁published	-1548
roy	-1549
▁hour	-1550
ison	-1551
sp	-1552
▁produced	-1553
ges	-1554
levision	-1555
▁find	-1556
▁reported	-1557
aun	-1558
▁origin	-1559
isc	-1560
▁youn	-1561
▁2006	-1562
ably	-1563
▁lost	-1564
▁stated	-1565
aign	-1566
▁common	-1567
▁program	-1568
ille	-1569
▁Ex	-1570
▁particular	-1571
▁light	-1572
ai	-1573
▁ord	-1574
▁adm	-1575
▁Sm	-1576
ington	-1577
con	-1578
▁include	-1579
▁According	-1580
echn	-1581
urric	-1582
▁compet	-1583
▁recorded	-1584
used	-1585
▁building	-1586
▁press	-1587
gr	-1588
hing	-1589
err	-1590
ief	-1591
▁need	-1592
▁project	-1593
▁forces	-1594
▁bus	-1595
▁Sy	-1596
▁nort	-1597
▁ships	-1598
▁should	-1599
▁using	-1600
▁eight	-1601
▁interest	-1602
▁Ab	-1603
▁performance	-1604
aren	-1605
▁service	-1606
▁popular	-1607
▁27	-1608
▁These	-1609
▁ide	-1610
ploy	-1611
▁50	-1612
▁times	-1613
iment	-1614
raw	-1615
▁making	-1616
▁28	-1617
▁aircraft	-1618
▁ten	-1619
▁himself	-1620
▁2013	-1621
▁author	-1622
oyal	-1623
ned	-1624
▁father	-1625
▁military	-1626
tain	-1627
iness	-1628
▁Australia	-1629
▁Sw	-1630
osp	-1631
▁battle	-1632
▁anim	-1633
ampionship	-1634
lear	-1635
▁Sec	-1636
▁Jack	-1637
▁sit	-1638
▁lim	-1639
▁songs	-1640
▁somet	-1641
▁Ass	-1642
atch	-1643
▁fr	-1644
▁read	-1645
outher	-1646
▁Ne	-1647
ae	-1648
▁critic	-1649
▁Pres	-1650
ensive	-1651
▁development	-1652
play	-1653
▁Af	-1654
ither	-1655
ords	-1656
▁how	-1657
▁General	-1658
alth	-1659
▁sw	-1660
itive	-1661
quad	-1662
▁State	-1663
olution	-1664
▁40	-1665
▁Ste	-1666
eder	-1667
outhern	-1668
ases	-1669
▁James	-1670
▁gl	-1671
▁189	-1672
▁cross	-1673
▁26	-1674
▁ground	-1675
▁Dr	-1676
▁ft	-1677
cer	-1678
▁star	-1679
▁remained	-1680
▁Cor	-1681
astern	-1682
acy	-1683
▁characters	-1684
▁Army	-1685
▁national	-1686
▁get	-1687
▁ste	-1688
▁months	-1689
▁suff	-1690
▁present	-1691
▁died	-1692
rick	-1693
oll	-1694
▁gen	-1695
▁developed	-1696
ries	-1697
▁title	-1698
ublic	-1699
rie	-1700
work	-1701
▁sum	-1702
▁fun	-1703
▁Comp	-1704
▁chart	-1705
dom	-1706
▁campaign	-1707
urricane	-1708
▁force	-1709
▁children	-1710
▁League	-1711
fic	-1712
ument	-1713
ream	-1714
▁introdu	-1715
ration	-1716
bs	-1717
▁promot	-1718
▁tour	-1719
ency	-1720
itted	-1721
eth	-1722
▁Bo	-1723
▁signific	-1724
▁across	-1725
isted	-1726
lands	-1727
▁son	-1728
▁away	-1729
▁Gl	-1730
ression	-1731
▁relations	-1732
ael	-1733
▁red	-1734
hern	-1735
▁obs	-1736
▁official	-1737
▁field	-1738
▁histor	-1739
▁Division	-1740
▁fav	-1741
▁pra	-1742
▁felt	-1743
aur	-1744
▁America	-1745
lege	-1746
▁noted	-1747
▁fac	-1748
▁night	-1749
most	-1750
▁announced	-1751
▁reached	-1752
▁Russ	-1753
▁intern	-1754
▁Sim	-1755
▁created	-1756
▁County	-1757
▁areas	-1758
▁destroy	-1759
▁television	-1760
▁Japanese	-1761
▁2005	-1762
ask	-1763
▁station	-1764
▁Road	-1765
▁Rep	-1766
▁coun	-1767
alt	-1768
▁successful	-1769
ressed	-1770
ole	-1771
▁rock	-1772
imately	-1773
▁ask	-1774
▁Sup	-1775
▁arm	-1776
▁Street	-1777
vent	-1778
▁various	-1779
yn	-1780
▁’	-1781
▁val	-1782
▁political	-1783
▁seen	-1784
reg	-1785
▁followed	-1786
▁aver	-1787
▁too	-1788
▁Mad	-1789
▁bar	-1790
▁rank	-1791
▁trav	-1792
▁Mon	-1793
▁performed	-1794
iting	-1795
ising	-1796
▁Rober	-1797
▁cult	-1798
▁served	-1799
▁East	-1800
▁2014	-1801
▁players	-1802
cast	-1803
▁George	-1804
iber	-1805
▁Reg	-1806
▁29	-1807
▁full	-1808
▁cond	-1809
▁decl	-1810
▁rev	-1811
▁begin	-1812
▁prim	-1813
ope	-1814
duct	-1815
▁black	-1816
ality	-1817
ination	-1818
elling	-1819
▁fle	-1820
▁put	-1821
▁earl	-1822
▁circ	-1823
field	-1824
▁cost	-1825
idence	-1826
▁see	-1827
▁sol	-1828
▁process	-1829
omp	-1830
hem	-1831
▁style	-1832
▁Hen	-1833
abor	-1834
▁look	-1835
▁test	-1836
ization	-1837
▁div	-1838
▁seven	-1839
▁enc	-1840
reek	-1841
▁To	-1842
▁killed	-1843
▁aud	-1844
ays	-1845
▁help	-1846
▁Phil	-1847
rict	-1848
▁let	-1849
lished	-1850
▁throughout	-1851
▁vol	-1852
▁taken	-1853
▁Ser	-1854
▁able	-1855
▁tropical	-1856
▁Bill	-1857
▁fight	-1858
▁discover	-1859
▁non	-1860
▁agre	-1861
▁little	-1862
ertain	-1863
▁wid	-1864
ecut	-1865
▁becom	-1866
▁cy	-1867
▁significant	-1868
▁age	-1869
▁fem	-1870
▁Em	-1871
ett	-1872
▁meet	-1873
▁hit	-1874
▁ident	-1875
▁special	-1876
▁techn	-1877
ways	-1878
▁writing	-1879
▁er	-1880
oice	-1881
▁struct	-1882
▁thought	-1883
▁established	-1884
irl	-1885
▁broad	-1886
▁cop	-1887
▁mm	-1888
enced	-1889
▁body	-1890
▁front	-1891
▁appeared	-1892
▁does	-1893
▁David	-1894
▁Act	-1895
▁entire	-1896
▁Australian	-1897
▁!	-1898
▁Part	-1899
▁coll	-1900
epend	-1901
▁points	-1902
▁coast	-1903
▁miles	-1904
cil	-1905
▁Per	-1906
▁award	-1907
aval	-1908
▁impro	-1909
▁route	-1910
▁member	-1911
▁Rich	-1912
ought	-1913
ground	-1914
▁women	-1915
▁activ	-1916
▁range	-1917
odes	-1918
▁Mor	-1919
▁caused	-1920
▁started	-1921
▁decided	-1922
ript	-1923
urg	-1924
ivil	-1925
▁You	-1926
▁features	-1927
lected	-1928
▁Afric	-1929
▁general	-1930
▁Med	-1931
▁pain	-1932
▁eventually	-1933
day	-1934
less	-1935
hys	-1936
aves	-1937
iers	-1938
iron	-1939
conom	-1940
▁Royal	-1941
▁race	-1942
ators	-1943
iec	-1944
▁vot	-1945
ming	-1946
ster	-1947
ana	-1948
▁grow	-1949
▁Pe	-1950
▁manag	-1951
▁arch	-1952
▁feet	-1953
idd	-1954
ogn	-1955
gether	-1956
▁together	-1957
▁added	-1958
rison	-1959
▁hold	-1960
▁House	-1961
▁Hist	-1962
▁cut	-1963
ius	-1964
▁once	-1965
▁white	-1966
▁188	-1967
here	-1968
ivid	-1969
▁My	-1970
▁formed	-1971
ample	-1972
▁tre	-1973
▁located	-1974
lin	-1975
itar	-1976
▁nov	-1977
▁stri	-1978
▁arg	-1979
▁Sch	-1980
▁modern	-1981
▁conn	-1982
▁instead	-1983
rought	-1984
bert	-1985
▁round	-1986
▁Qu	-1987
emy	-1988
umb	-1989
men	-1990
▁esc	-1991
orts	-1992
▁Black	-1993
aces	-1994
▁ball	-1995
▁important	-1996
hic	-1997
▁mix	-1998
omm	-1999
▁Intern	-2000
ades	-2001
▁crew	-2002
▁pri	-2003
▁saw	-2004
▁action	-2005
urb	-2006
▁completed	-2007
▁31	-2008
cing	-2009
▁redu	-2010
head	-2011
▁playing	-2012
ects	-2013
▁Indian	-2014
▁Other	-2015
oney	-2016
ray	-2017
▁2004	-2018
off	-2019
ament	-2020
cent	-2021
▁insp	-2022
▁population	-2023
▁mater	-2024
▁invest	-2025
▁base	-2026
▁surv	-2027
▁Michael	-2028
▁mot	-2029
ells	-2030
▁voc	-2031
▁rather	-2032
▁occur	-2033
▁opened	-2034
▁stage	-2035
ee	-2036
▁behind	-2037
▁others	-2038
▁186	-2039
ush	-2040
▁fall	-2041
▁guns	-2042
▁brother	-2043
ceed	-2044
asing	-2045
▁ren	-2046
▁comment	-2047
▁lik	-2048
igned	-2049
▁born	-2050
ements	-2051
▁fif	-2052
▁site	-2053
▁2015	-2054
▁live	-2055
▁works	-2056
aps	-2057
▁loss	-2058
stit	-2059
▁France	-2060
▁worked	-2061
▁bomb	-2062
ficult	-2063
▁heavy	-2064
▁miss	-2065
int	-2066
▁ra	-2067
▁pred	-2068
▁subsequ	-2069
▁lack	-2070
▁School	-2071
medi	-2072
▁party	-2073
▁proble	-2074
▁difficult	-2075
▁close	-2076
lection	-2077
wood	-2078
▁construction	-2079
▁Wash	-2080
▁know	-2081
▁Some	-2082
▁relationship	-2083
▁weeks	-2084
▁host	-2085
▁originally	-2086
gg	-2087
▁separ	-2088
▁associ	-2089
▁Ham	-2090
▁upon	-2091
▁pract	-2092
▁Henry	-2093
▁leading	-2094
▁appoin	-2095
nder	-2096
▁Nor	-2097
▁almost	-2098
▁vill	-2099
▁young	-2100
▁Robert	-2101
▁peak	-2102
▁damage	-2103
▁inj	-2104
ara	-2105
istic	-2106
▁scored	-2107
▁San	-2108
▁fourth	-2109
▁Port	-2110
▁inform	-2111
▁2000	-2112
▁reve	-2113
osition	-2114
▁provided	-2115
arch	-2116
▁Best	-2117
▁mer	-2118
▁Ale	-2119
uk	-2120
▁Music	-2121
▁case	-2122
▁goal	-2123
▁clos	-2124
▁engine	-2125
anch	-2126
▁reb	-2127
▁creat	-2128
ata	-2129
▁Battle	-2130
▁accept	-2131
▁scene	-2132
lic	-2133
▁mi	-2134
▁human	-2135
board	-2136
▁Vir	-2137
▁dev	-2138
▁Star	-2139
▁brought	-2140
▁Desp	-2141
oring	-2142
ellow	-2143
▁free	-2144
▁individ	-2145
▁500	-2146
angu	-2147
▁187	-2148
▁featured	-2149
▁mother	-2150
▁President	-2151
▁Red	-2152
▁Paul	-2153
▁least	-2154
▁allowed	-2155
▁working	-2156
▁king	-2157
▁resul	-2158
▁laun	-2159
▁Cour	-2160
▁average	-2161
ological	-2162
▁towards	-2163
▁wanted	-2164
▁Rou	-2165
▁tradition	-2166
▁indust	-2167
▁region	-2168
▁business	-2169
▁Washington	-2170
ened	-2171
▁troops	-2172
▁placed	-2173
azine	-2174
▁quick	-2175
ule	-2176
▁either	-2177
▁respect	-2178
▁office	-2179
▁critics	-2180
▁Que	-2181
▁avail	-2182
▁ve	-2183
antic	-2184
▁reach	-2185
▁Cap	-2186
▁example	-2187
▁mult	-2188
▁Play	-2189
▁runs	-2190
▁material	-2191
▁Mil	-2192
▁profess	-2193
▁hon	-2194
▁econom	-2195
▁recogn	-2196
aut	-2197
▁wife	-2198
▁Hol	-2199
ula	-2200
iff	-2201
▁estim	-2202
earch	-2203
▁army	-2204
▁neg	-2205
▁foc	-2206
oid	-2207
chie	-2208
▁Despite	-2209
ential	-2210
▁2003	-2211
iol	-2212
▁Bel	-2213
▁sex	-2214
▁Follow	-2215
arm	-2216
rey	-2217
▁sour	-2218
▁generally	-2219
ength	-2220
▁joined	-2221
▁ce	-2222
▁mass	-2223
▁Ag	-2224
▁rail	-2225
quadron	-2226
▁Thom	-2227
▁proper	-2228
▁dou	-2229
ama	-2230
▁current	-2231
▁Angel	-2232
ica	-2233
▁Hill	-2234
ino	-2235
▁events	-2236
▁represent	-2237
▁believed	-2238
to	-2239
▁Cup	-2240
ving	-2241
ourn	-2242
▁particip	-2243
▁ter	-2244
▁bill	-2245
▁Following	-2246
▁Hall	-2247
▁fig	-2248
▁Game	-2249
enes	-2250
sc	-2251
▁First	-2252
▁Mary	-2253
uff	-2254
▁victory	-2255
▁replaced	-2256
▁35	-2257
▁Great	-2258
be	-2259
▁designed	-2260
▁mph	-2261
artment	-2262
▁rul	-2263
▁soon	-2264
▁nomin	-2265
itch	-2266
iction	-2267
▁island	-2268
▁Lou	-2269
itte	-2270
▁fund	-2271
ze	-2272
▁hours	-2273
▁European	-2274
▁employ	-2275
▁Two	-2276
xic	-2277
▁president	-2278
erous	-2279
▁involved	-2280
go	-2281
oms	-2282
▁surf	-2283
▁Ke	-2284
▁finished	-2285
▁Je	-2286
▁stru	-2287
aled	-2288
ification	-2289
▁Championship	-2290
merc	-2291
▁Gro	-2292
aper	-2293
asion	-2294
▁break	-2295
west	-2296
inist	-2297
ky	-2298
▁saying	-2299
fall	-2300
uel	-2301
oor	-2302
▁hor	-2303
▁court	-2304
▁threat	-2305
▁shot	-2306
▁opening	-2307
▁score	-2308
▁Mart	-2309
▁Roman	-2310
▁regular	-2311
ago	-2312
emor	-2313
key	-2314
▁director	-2315
▁length	-2316
▁desp	-2317
▁indic	-2318
▁conduct	-2319
▁largest	-2320
▁La	-2321
▁Scott	-2322
▁contrib	-2323
ecutive	-2324
▁possible	-2325
▁unc	-2326
▁highway	-2327
▁minutes	-2328
▁Route	-2329
▁southern	-2330
▁ill	-2331
▁Dan	-2332
▁z	-2333
▁dro	-2334
ville	-2335
BC	-2336
▁Mal	-2337
▁exc	-2338
▁highest	-2339
▁ly	-2340
▁remov	-2341
▁earlier	-2342
ishing	-2343
▁From	-2344
▁initially	-2345
▁Don	-2346
▁2001	-2347
ander	-2348
of	-2349
▁hom	-2350
▁available	-2351
▁particularly	-2352
▁percent	-2353
▁Atl	-2354
antry	-2355
now	-2356
anned	-2357
co	-2358
▁training	-2359
ude	-2360
▁sequ	-2361
leg	-2362
▁hard	-2363
▁Republic	-2364
▁Sing	-2365
▁forced	-2366
▁exist	-2367
▁Cro	-2368
▁must	-2369
▁Met	-2370
inn	-2371
ply	-2372
cher	-2373
▁grad	-2374
▁Wil	-2375
▁contr	-2376
arn	-2377
▁Charles	-2378
▁Kingdom	-2379
▁Navy	-2380
ights	-2381
▁Val	-2382
▁°	-2383
▁park	-2384
hib	-2385
iding	-2386
▁ended	-2387
▁respons	-2388
▁quar	-2389
▁Mac	-2390
ography	-2391
asy	-2392
▁turned	-2393
ateg	-2394
▁Thomas	-2395
▁social	-2396
▁International	-2397
oul	-2398
ipp	-2399
▁wall	-2400
▁Off	-2401
uture	-2402
▁studio	-2403
rian	-2404
iforn	-2405
▁change	-2406
▁langu	-2407
▁praised	-2408
▁Virgin	-2409
ems	-2410
▁passed	-2411
▁Dep	-2412
▁hy	-2413
▁McC	-2414
▁White	-2415
▁increased	-2416
▁piec	-2417
▁object	-2418
▁priv	-2419
▁But	-2420
▁hurricane	-2421
bor	-2422
▁Mag	-2423
▁educ	-2424
▁regard	-2425
▁northern	-2426
atural	-2427
▁Brown	-2428
heast	-2429
▁2002	-2430
▁Res	-2431
▁keep	-2432
▁central	-2433
▁Church	-2434
▁phys	-2435
iation	-2436
▁novel	-2437
▁Ber	-2438
▁Canada	-2439
▁relig	-2440
▁appearance	-2441
▁Californ	-2442
▁units	-2443
▁speed	-2444
sel	-2445
itor	-2446
▁super	-2447
ership	-2448
▁past	-2449
▁Pal	-2450
▁church	-2451
▁stop	-2452
▁immedi	-2453
ended	-2454
anks	-2455
ocr	-2456
▁Smith	-2457
▁Rock	-2458
▁sym	-2459
▁ordered	-2460
▁meas	-2461
▁Cam	-2462
aughter	-2463
▁disp	-2464
▁treat	-2465
▁Bay	-2466
uter	-2467
▁Sen	-2468
ios	-2469
▁taking	-2470
ference	-2471
▁Richard	-2472
ittee	-2473
▁independ	-2474
▁signed	-2475
▁love	-2476
▁move	-2477
▁quest	-2478
anding	-2479
▁California	-2480
▁achie	-2481
▁Alex	-2482
ston	-2483
ilities	-2484
▁better	-2485
▁Sam	-2486
etwork	-2487
rem	-2488
▁Union	-2489
val	-2490
aker	-2491
pped	-2492
▁pers	-2493
ique	-2494
▁Sl	-2495
▁Govern	-2496
ecess	-2497
den	-2498
arily	-2499
▁winds	-2500
▁Ir	-2501
▁Island	-2502
▁enough	-2503
▁commerc	-2504
▁positive	-2505
agon	-2506
▁inn	-2507
▁wat	-2508
apt	-2509
▁according	-2510
▁Court	-2511
▁spent	-2512
ears	-2513
▁hous	-2514
▁God	-2515
▁going	-2516
rated	-2517
rup	-2518
▁Mo	-2519
▁above	-2520
▁outside	-2521
elled	-2522
▁slow	-2523
▁ap	-2524
▁films	-2525
nel	-2526
ump	-2527
▁pot	-2528
▁feel	-2529
ume	-2530
▁told	-2531
ids	-2532
▁football	-2533
▁Vict	-2534
▁Award	-2535
▁Cong	-2536
▁previously	-2537
▁recording	-2538
▁clear	-2539
▁states	-2540
quare	-2541
▁1990	-2542
▁mean	-2543
▁Mill	-2544
▁Associ	-2545
uation	-2546
▁nine	-2547
▁Up	-2548
▁failed	-2549
▁subject	-2550
▁assist	-2551
▁come	-2552
usion	-2553
▁Company	-2554
▁required	-2555
▁pur	-2556
▁Jos	-2557
▁elements	-2558
▁prob	-2559
osing	-2560
reng	-2561
▁60	-2562
▁Germany	-2563
▁India	-2564
alion	-2565
com	-2566
ks	-2567
▁ey	-2568
▁reviews	-2569
edy	-2570
▁interview	-2571
▁cru	-2572
▁lower	-2573
▁parts	-2574
▁Cr	-2575
▁Stud	-2576
tr	-2577
▁45	-2578
▁itself	-2579
atin	-2580
▁Art	-2581
▁think	-2582
▁Peter	-2583
▁Christian	-2584
▁pay	-2585
▁directed	-2586
ida	-2587
oph	-2588
▁Mark	-2589
▁nar	-2590
▁abs	-2591
▁despite	-2592
for	-2593
itz	-2594
▁sil	-2595
▁flow	-2596
▁cred	-2597
▁esp	-2598
▁contract	-2599
▁Gold	-2600
▁185	-2601
ands	-2602
▁Ac	-2603
▁That	-2604
▁debut	-2605
▁?	-2606
▁phot	-2607
▁Mer	-2608
▁£	-2609
▁rain	-2610
ibility	-2611
▁Times	-2612
▁NY	-2613
erved	-2614
ready	-2615
▁access	-2616
isl	-2617
▁beginning	-2618
▁groups	-2619
▁Tom	-2620
▁College	-2621
het	-2622
oke	-2623
▁viol	-2624
nes	-2625
▁section	-2626
▁beg	-2627
▁UK	-2628
▁whose	-2629
onna	-2630
▁Sov	-2631
asons	-2632
▁claimed	-2633
hester	-2634
ows	-2635
▁asked	-2636
▁Cast	-2637
▁Western	-2638
▁international	-2639
▁lines	-2640
▁transfer	-2641
bers	-2642
▁Pat	-2643
▁rap	-2644
▁cou	-2645
▁streng	-2646
▁give	-2647
▁Soviet	-2648
▁screen	-2649
onse	-2650
airs	-2651
rief	-2652
▁additional	-2653
aint	-2654
▁future	-2655
ability	-2656
▁league	-2657
▁key	-2658
▁whom	-2659
▁Mexic	-2660
▁Frank	-2661
▁poor	-2662
▁Span	-2663
berg	-2664
ma	-2665
▁gold	-2666
▁Film	-2667
▁Awards	-2668
acted	-2669
▁introduced	-2670
▁travel	-2671
▁bi	-2672
▁che	-2673
▁fort	-2674
▁evidence	-2675
▁op	-2676
lying	-2677
▁prem	-2678
▁sea	-2679
▁idea	-2680
▁quickly	-2681
▁don	-2682
▁Grand	-2683
igan	-2684
ki	-2685
▁Dem	-2686
▁already	-2687
van	-2688
▁center	-2689
▁bridge	-2690
▁Do	-2691
▁frequ	-2692
▁Force	-2693
onst	-2694
▁election	-2695
▁product	-2696
▁Soc	-2697
▁Most	-2698
▁occup	-2699
▁Ben	-2700
▁except	-2701
▁1970	-2702
▁deal	-2703
usp	-2704
atory	-2705
ecially	-2706
▁pil	-2707
▁Coun	-2708
▁usually	-2709
▁arrived	-2710
▁musical	-2711
▁1980	-2712
anded	-2713
▁western	-2714
▁pen	-2715
eum	-2716
irth	-2717
▁block	-2718
mar	-2719
▁radio	-2720
▁Britain	-2721
▁cal	-2722
▁32	-2723
liam	-2724
▁civil	-2725
aring	-2726
ergy	-2727
eal	-2728
ully	-2729
▁female	-2730
▁sometimes	-2731
ex	-2732
▁study	-2733
▁Rob	-2734
▁response	-2735
back	-2736
▁cycl	-2737
▁food	-2738
▁money	-2739
▁decision	-2740
▁magazine	-2741
▁especially	-2742
▁Day	-2743
▁issue	-2744
ship	-2745
▁env	-2746
▁Later	-2747
▁Over	-2748
liament	-2749
▁Pac	-2750
▁Hot	-2751
▁Victor	-2752
▁surface	-2753
ites	-2754
▁flood	-2755
▁might	-2756
▁lab	-2757
▁liter	-2758
▁carried	-2759
▁shows	-2760
▁guitar	-2761
▁Chic	-2762
▁community	-2763
▁estimated	-2764
bour	-2765
▁construct	-2766
unt	-2767
▁remain	-2768
▁remaining	-2769
▁1999	-2770
▁eastern	-2771
▁minor	-2772
▁defeated	-2773
▁determ	-2774
eck	-2775
▁Virginia	-2776
▁Early	-2777
▁approx	-2778
▁larger	-2779
inent	-2780
ession	-2781
▁becoming	-2782
aries	-2783
▁complete	-2784
▁Mount	-2785
▁police	-2786
▁wood	-2787
▁suggested	-2788
porary	-2789
▁media	-2790
▁pressure	-2791
▁entered	-2792
▁shoot	-2793
▁Bur	-2794
▁Franc	-2795
▁teams	-2796
▁Im	-2797
▁commercial	-2798
▁latter	-2799
▁lyric	-2800
▁market	-2801
▁Los	-2802
▁consider	-2803
▁students	-2804
▁doc	-2805
▁Just	-2806
▁surround	-2807
ift	-2808
▁investig	-2809
erve	-2810
▁brief	-2811
asc	-2812
▁concern	-2813
▁36	-2814
▁personal	-2815
ss	-2816
▁Second	-2817
▁80	-2818
▁lo	-2819
▁certain	-2820
▁prison	-2821
ulf	-2822
▁discuss	-2823
▁If	-2824
▁Tex	-2825
▁acqu	-2826
ena	-2827
inct	-2828
▁Inf	-2829
▁effects	-2830
▁Jackson	-2831
▁complet	-2832
▁appointed	-2833
▁bur	-2834
▁summer	-2835
▁hop	-2836
▁episodes	-2837
ederal	-2838
▁prior	-2839
alled	-2840
gen	-2841
acing	-2842
incip	-2843
▁Fle	-2844
change	-2845
▁der	-2846
▁size	-2847
enth	-2848
▁staff	-2849
▁emer	-2850
▁changes	-2851
ises	-2852
▁Flor	-2853
▁Louis	-2854
▁commission	-2855
▁sat	-2856
▁Oly	-2857
▁winning	-2858
▁limited	-2859
▁tar	-2860
▁scenes	-2861
imate	-2862
▁leaving	-2863
▁fleet	-2864
▁destroyed	-2865
▁river	-2866
▁Olymp	-2867
ulated	-2868
▁draw	-2869
▁Club	-2870
NA	-2871
▁Spanish	-2872
▁self	-2873
▁rights	-2874
▁den	-2875
▁provide	-2876
▁writer	-2877
ournal	-2878
igade	-2879
▁type	-2880
idents	-2881
▁polic	-2882
▁fail	-2883
ires	-2884
▁date	-2885
vey	-2886
han	-2887
▁territ	-2888
▁proposed	-2889
ension	-2890
▁influence	-2891
▁girl	-2892
▁trib	-2893
▁Party	-2894
▁75	-2895
▁overall	-2896
▁arrang	-2897
ests	-2898
▁structure	-2899
su	-2900
▁transport	-2901
▁1960	-2902
▁184	-2903
ties	-2904
iser	-2905
▁tax	-2906
▁equip	-2907
▁contro	-2908
▁division	-2909
▁kil	-2910
sy	-2911
▁script	-2912
▁Green	-2913
inese	-2914
▁300	-2915
▁Association	-2916
▁agreed	-2917
▁room	-2918
▁intended	-2919
iral	-2920
yr	-2921
ores	-2922
▁Edward	-2923
▁running	-2924
▁anti	-2925
▁jud	-2926
▁Chicago	-2927
▁daughter	-2928
▁bow	-2929
▁broadcast	-2930
▁nearly	-2931
▁purch	-2932
▁supported	-2933
ending	-2934
▁big	-2935
▁deep	-2936
▁research	-2937
▁Many	-2938
▁Pri	-2939
▁wide	-2940
▁establish	-2941
▁helped	-2942
▁Adm	-2943
imum	-2944
atives	-2945
▁married	-2946
▁movement	-2947
▁1998	-2948
▁Chinese	-2949
▁awarded	-2950
tt	-2951
aded	-2952
▁Du	-2953
▁Council	-2954
▁lay	-2955
▁multip	-2956
▁Song	-2957
AF	-2958
▁Oper	-2959
▁create	-2960
▁favor	-2961
▁display	-2962
▁intens	-2963
atively	-2964
lo	-2965
▁di	-2966
▁bird	-2967
▁dark	-2968
▁Enter	-2969
▁susp	-2970
que	-2971
rd	-2972
▁diss	-2973
▁stars	-2974
pris	-2975
teen	-2976
ga	-2977
▁Ev	-2978
▁longer	-2979
iles	-2980
▁Cont	-2981
▁language	-2982
▁higher	-2983
sen	-2984
▁planned	-2985
▁compared	-2986
▁captured	-2987
dle	-2988
▁increasing	-2989
▁fans	-2990
▁Ro	-2991
▁stay	-2992
▁conclud	-2993
▁course	-2994
ha	-2995
▁changed	-2996
selves	-2997
▁experience	-2998
▁Johnson	-2999
▁approximately	-3000
▁Serv	-3001
▁related	-3002
▁done	-3003
▁fifth	-3004
▁feature	-3005
▁living	-3006
▁cat	-3007
▁themselves	-3008
omer	-3009
▁Emp	-3010
ounds	-3011
ronic	-3012
▁producer	-3013
▁History	-3014
enty	-3015
tained	-3016
▁Kore	-3017
▁Ital	-3018
▁temper	-3019
▁tracks	-3020
▁mostly	-3021
▁space	-3022
▁Pacific	-3023
▁Lit	-3024
▁withd	-3025
isions	-3026
abit	-3027
burg	-3028
▁Billboard	-3029
▁thus	-3030
▁70	-3031
▁-	-3032
▁33	-3033
▁woman	-3034
▁operations	-3035
▁remains	-3036
▁dead	-3037
▁Back	-3038
▁paren	-3039
▁quarter	-3040
▁bring	-3041
▁our	-3042
▁natural	-3043
▁Super	-3044
▁whether	-3045
▁Not	-3046
olic	-3047
thing	-3048
umn	-3049
▁Bet	-3050
▁imm	-3051
▁weap	-3052
▁probably	-3053
▁Final	-3054
▁soldiers	-3055
▁concept	-3056
▁dram	-3057
andon	-3058
▁Sal	-3059
▁App	-3060
▁copies	-3061
▁Scot	-3062
▁ult	-3063
imin	-3064
▁buildings	-3065
▁leader	-3066
▁syn	-3067
▁extended	-3068
▁voice	-3069
▁Since	-3070
▁1997	-3071
▁lyrics	-3072
▁face	-3073
▁Inter	-3074
▁Atlantic	-3075
▁forward	-3076
▁depart	-3077
can	-3078
▁boy	-3079
▁complex	-3080
oint	-3081
▁board	-3082
▁Mont	-3083
▁react	-3084
▁issued	-3085
▁battles	-3086
▁chall	-3087
iant	-3088
riage	-3089
▁really	-3090
▁countries	-3091
▁heav	-3092
vin	-3093
iring	-3094
▁suffered	-3095
ospital	-3096
▁Congress	-3097
▁cm	-3098
▁Lake	-3099
▁Love	-3100
▁goals	-3101
▁includes	-3102
▁Florida	-3103
▁Sever	-3104
▁immediately	-3105
raz	-3106
▁Kn	-3107
▁attend	-3108
▁Sun	-3109
ams	-3110
▁Both	-3111
▁Fort	-3112
▁deg	-3113
▁breed	-3114
▁mixed	-3115
▁manager	-3116
▁private	-3117
▁capital	-3118
che	-3119
▁officers	-3120
▁likely	-3121
▁Jim	-3122
▁Jew	-3123
▁emb	-3124
hood	-3125
▁37	-3126
▁cann	-3127
▁Big	-3128
▁distrib	-3129
lebr	-3130
▁Queen	-3131
▁Old	-3132
▁removed	-3133
▁Texas	-3134
▁initial	-3135
▁increase	-3136
▁plant	-3137
▁mach	-3138
▁Sea	-3139
venue	-3140
▁health	-3141
▁subsequently	-3142
▁leave	-3143
▁plans	-3144
▁always	-3145
ibr	-3146
uz	-3147
▁focus	-3148
▁Town	-3149
▁services	-3150
▁network	-3151
▁status	-3152
▁via	-3153
▁coin	-3154
▁mount	-3155
hold	-3156
ections	-3157
▁compan	-3158
▁visit	-3159
▁location	-3160
▁China	-3161
▁Dist	-3162
bury	-3163
▁Another	-3164
urt	-3165
▁Law	-3166
▁problems	-3167
▁Mr	-3168
order	-3169
▁Lord	-3170
rial	-3171
▁offered	-3172
▁instr	-3173
▁flag	-3174
▁Earth	-3175
▁terms	-3176
▁model	-3177
▁How	-3178
▁norm	-3179
uth	-3180
▁approach	-3181
ny	-3182
aily	-3183
▁colon	-3184
▁something	-3185
▁village	-3186
▁administ	-3187
▁tons	-3188
▁fell	-3189
▁carry	-3190
ounted	-3191
ging	-3192
stant	-3193
▁mur	-3194
▁Camp	-3195
▁majority	-3196
ironment	-3197
ria	-3198
▁tow	-3199
▁professional	-3200
▁Canadian	-3201
▁183	-3202
ctor	-3203
orning	-3204
ili	-3205
ously	-3206
▁Trans	-3207
▁Tor	-3208
▁Boy	-3209
amer	-3210
▁Its	-3211
ari	-3212
adium	-3213
▁got	-3214
▁tor	-3215
▁Rail	-3216
▁Africa	-3217
▁cause	-3218
ograph	-3219
▁consist	-3220
ills	-3221
uries	-3222
▁damaged	-3223
▁inters	-3224
▁meeting	-3225
▁Wood	-3226
well	-3227
▁appears	-3228
▁Tour	-3229
▁Step	-3230
▁job	-3231
▁confir	-3232
▁counter	-3233
▁minute	-3234
▁adop	-3235
aches	-3236
etic	-3237
▁Pet	-3238
▁ranked	-3239
▁ran	-3240
▁composed	-3241
▁individual	-3242
▁revealed	-3243
▁Center	-3244
▁Squadron	-3245
▁Highway	-3246
▁meth	-3247
▁attacks	-3248
▁flight	-3249
▁Russian	-3250
itect	-3251
cean	-3252
reater	-3253
▁sch	-3254
▁plot	-3255
▁discovered	-3256
▁raised	-3257
▁Tur	-3258
ware	-3259
▁respectively	-3260
▁financ	-3261
ys	-3262
umed	-3263
▁makes	-3264
▁Mur	-3265
ify	-3266
▁Carol	-3267
ij	-3268
▁numerous	-3269
▁Central	-3270
▁Kent	-3271
▁1995	-3272
▁Sir	-3273
▁Martin	-3274
▁associated	-3275
oes	-3276
ien	-3277
▁takes	-3278
▁III	-3279
▁Angeles	-3280
▁altern	-3281
▁Ol	-3282
reak	-3283
▁needed	-3284
▁inspired	-3285
aging	-3286
▁domin	-3287
mon	-3288
▁lived	-3289
▁90	-3290
▁Ant	-3291
▁launched	-3292
▁yet	-3293
▁anc	-3294
▁nature	-3295
ription	-3296
olk	-3297
▁occurred	-3298
▁Bow	-3299
▁contains	-3300
▁vehic	-3301
▁coach	-3302
fact	-3303
▁shown	-3304
▁cand	-3305
▁bene	-3306
▁attempted	-3307
ails	-3308
▁pow	-3309
estival	-3310
▁attacked	-3311
▁moving	-3312
▁conditions	-3313
uments	-3314
▁upper	-3315
uals	-3316
▁DV	-3317
ault	-3318
▁amb	-3319
▁sales	-3320
▁dig	-3321
▁accomp	-3322
ective	-3323
▁Group	-3324
▁Year	-3325
▁collect	-3326
▁2016	-3327
joy	-3328
▁TV	-3329
down	-3330
▁issues	-3331
▁1996	-3332
▁Miss	-3333
▁Rh	-3334
aught	-3335
▁birth	-3336
▁34	-3337
▁1950	-3338
gely	-3339
itt	-3340
▁whole	-3341
▁information	-3342
▁Greek	-3343
▁exam	-3344
▁Str	-3345
▁yards	-3346
de	-3347
▁slight	-3348
▁Empire	-3349
▁Rad	-3350
arian	-3351
▁Mel	-3352
▁referred	-3353
▁38	-3354
▁box	-3355
urity	-3356
▁critical	-3357
lor	-3358
▁mom	-3359
uing	-3360
▁numbers	-3361
▁finally	-3362
▁incor	-3363
▁smaller	-3364
▁elected	-3365
▁resulted	-3366
▁selected	-3367
▁defeat	-3368
reme	-3369
▁Rev	-3370
▁grant	-3371
▁scient	-3372
▁portray	-3373
▁Penn	-3374
▁active	-3375
▁qual	-3376
▁singer	-3377
win	-3378
vert	-3379
▁bad	-3380
▁sen	-3381
▁Des	-3382
▁princip	-3383
▁Out	-3384
▁standard	-3385
imb	-3386
ste	-3387
iest	-3388
▁secret	-3389
▁celebr	-3390
▁mission	-3391
▁industry	-3392
▁sal	-3393
uated	-3394
▁1994	-3395
▁Italian	-3396
▁largely	-3397
▁grand	-3398
▁operation	-3399
▁Under	-3400
▁pit	-3401
enant	-3402
itation	-3403
▁assigned	-3404
▁link	-3405
ortun	-3406
▁cer	-3407
▁ens	-3408
eph	-3409
▁earned	-3410
▁saf	-3411
▁analy	-3412
▁legisl	-3413
▁Del	-3414
▁commented	-3415
▁thr	-3416
▁ang	-3417
▁expected	-3418
▁male	-3419
▁prec	-3420
amb	-3421
▁Corps	-3422
itude	-3423
▁listed	-3424
▁audience	-3425
▁roy	-3426
▁DVD	-3427
▁covered	-3428
▁i	-3429
ken	-3430
▁artic	-3431
izing	-3432
▁unable	-3433
▁Crit	-3434
▁purp	-3435
▁sched	-3436
▁Ter	-3437
▁traditional	-3438
oe	-3439
▁education	-3440
irection	-3441
▁trade	-3442
▁artist	-3443
▁friends	-3444
▁heart	-3445
▁newsp	-3446
▁double	-3447
▁closed	-3448
▁refused	-3449
▁sem	-3450
▁Viet	-3451
▁underst	-3452
▁Gar	-3453
▁attention	-3454
▁recover	-3455
▁primary	-3456
▁method	-3457
ounts	-3458
▁request	-3459
use	-3460
▁sister	-3461
▁prevent	-3462
aine	-3463
▁kind	-3464
▁talk	-3465
▁Michigan	-3466
ogue	-3467
▁reason	-3468
onic	-3469
ighter	-3470
▁letter	-3471
▁officer	-3472
▁below	-3473
anced	-3474
▁contem	-3475
▁Dis	-3476
▁1940	-3477
▁enjoy	-3478
▁Wales	-3479
▁ability	-3480
▁depression	-3481
▁meant	-3482
▁performances	-3483
kin	-3484
▁declared	-3485
▁plat	-3486
hips	-3487
ider	-3488
ples	-3489
▁walk	-3490
oly	-3491
▁giving	-3492
▁Nort	-3493
undred	-3494
▁word	-3495
▁fighting	-3496
▁blood	-3497
▁commander	-3498
▁religious	-3499
▁More	-3500
▁180	-3501
▁books	-3502
▁compl	-3503
oud	-3504
▁Mass	-3505
▁theat	-3506
▁middle	-3507
tered	-3508
isher	-3509
▁Cath	-3510
▁sett	-3511
▁rate	-3512
▁max	-3513
▁hot	-3514
▁records	-3515
▁49	-3516
iled	-3517
▁matches	-3518
▁names	-3519
▁Democr	-3520
▁constit	-3521
▁Acad	-3522
▁produce	-3523
▁question	-3524
aped	-3525
▁Bec	-3526
▁Test	-3527
▁competition	-3528
antasy	-3529
▁serious	-3530
▁Cle	-3531
▁Care	-3532
▁centre	-3533
▁Pre	-3534
▁unit	-3535
▁Ox	-3536
▁Team	-3537
▁vocals	-3538
▁disapp	-3539
▁Minister	-3540
▁Several	-3541
bridge	-3542
▁touch	-3543
▁mention	-3544
odies	-3545
▁Zeal	-3546
utch	-3547
▁1992	-3548
iences	-3549
▁account	-3550
ounded	-3551
▁Major	-3552
▁abandon	-3553
▁Long	-3554
▁rapid	-3555
icted	-3556
▁energy	-3557
ady	-3558
shire	-3559
▁necess	-3560
▁Arch	-3561
rug	-3562
ector	-3563
road	-3564
▁Midd	-3565
▁kilomet	-3566
icient	-3567
quar	-3568
▁dra	-3569
ervation	-3570
▁constructed	-3571
ims	-3572
▁dut	-3573
▁Kenn	-3574
▁traff	-3575
▁Er	-3576
▁Lu	-3577
ening	-3578
▁Cons	-3579
▁vir	-3580
▁theme	-3581
▁Bu	-3582
▁Fore	-3583
▁ris	-3584
▁mor	-3585
ona	-3586
echan	-3587
▁Wal	-3588
▁royal	-3589
▁nearby	-3590
▁41	-3591
▁highly	-3592
▁pick	-3593
ishop	-3594
▁Time	-3595
▁Zealand	-3596
▁separate	-3597
▁train	-3598
oses	-3599
▁har	-3600
▁continue	-3601
▁chief	-3602
▁Fox	-3603
▁effort	-3604
▁presented	-3605
ares	-3606
edic	-3607
▁combat	-3608
rier	-3609
▁prep	-3610
▁drum	-3611
▁Mexico	-3612
▁positions	-3613
▁reduced	-3614
▁annual	-3615
▁African	-3616
▁controvers	-3617
▁Four	-3618
▁directly	-3619
ansion	-3620
▁Chris	-3621
ieut	-3622
▁1930	-3623
▁levels	-3624
▁means	-3625
ibly	-3626
▁tur	-3627
▁400	-3628
▁notes	-3629
▁attended	-3630
▁cas	-3631
▁neigh	-3632
▁tried	-3633
▁sevent	-3634
▁practice	-3635
▁forest	-3636
▁Matt	-3637
▁compos	-3638
▁cle	-3639
emorial	-3640
ether	-3641
▁Haw	-3642
▁edition	-3643
▁Sum	-3644
ining	-3645
▁fast	-3646
▁twenty	-3647
▁accepted	-3648
▁nuc	-3649
▁1993	-3650
▁Madonna	-3651
vement	-3652
▁stating	-3653
ette	-3654
▁Chart	-3655
▁1991	-3656
▁metal	-3657
▁Wall	-3658
▁movie	-3659
▁architect	-3660
oper	-3661
▁watch	-3662
▁So	-3663
▁text	-3664
▁repe	-3665
▁candid	-3666
cel	-3667
rical	-3668
anes	-3669
▁Scotland	-3670
▁concert	-3671
▁advance	-3672
stitute	-3673
▁Bob	-3674
track	-3675
▁Jones	-3676
▁pair	-3677
acher	-3678
osen	-3679
▁179	-3680
▁direction	-3681
ado	-3682
▁rein	-3683
ersey	-3684
▁Their	-3685
▁seem	-3686
▁schools	-3687
▁legal	-3688
▁55	-3689
▁dism	-3690
▁reject	-3691
▁rare	-3692
ping	-3693
lict	-3694
aver	-3695
▁+	-3696
▁marriage	-3697
▁thick	-3698
wide	-3699
▁Department	-3700
▁oil	-3701
▁horse	-3702
illery	-3703
eway	-3704
▁recomm	-3705
▁efforts	-3706
▁managed	-3707
▁asp	-3708
▁Manc	-3709
▁Dar	-3710
▁college	-3711
sis	-3712
▁purs	-3713
▁resulting	-3714
icip	-3715
▁ending	-3716
▁avoid	-3717
▁Cross	-3718
oo	-3719
▁wing	-3720
ieutenant	-3721
utions	-3722
▁showed	-3723
▁Sar	-3724
▁Three	-3725
▁dropped	-3726
▁responsible	-3727
▁Infantry	-3728
▁Tre	-3729
▁Creek	-3730
▁inside	-3731
▁nation	-3732
inem	-3733
▁cases	-3734
▁kept	-3735
▁environment	-3736
band	-3737
▁Arab	-3738
light	-3739
irit	-3740
▁182	-3741
▁cust	-3742
▁culture	-3743
▁meaning	-3744
▁Ann	-3745
▁Foot	-3746
▁Bost	-3747
▁cyclone	-3748
awn	-3749
▁Dou	-3750
house	-3751
▁begins	-3752
▁incorpor	-3753
▁Hel	-3754
▁variety	-3755
illed	-3756
▁morning	-3757
▁rat	-3758
ceeded	-3759
▁39	-3760
▁cerem	-3761
▁houses	-3762
uit	-3763
▁forms	-3764
isation	-3765
▁dom	-3766
▁championship	-3767
▁Service	-3768
▁words	-3769
▁Leg	-3770
▁Post	-3771
▁arrest	-3772
peror	-3773
▁yard	-3774
like	-3775
▁ge	-3776
▁Stone	-3777
▁Williams	-3778
▁schol	-3779
▁Records	-3780
▁marked	-3781
▁inches	-3782
▁Hung	-3783
▁Secret	-3784
▁continues	-3785
▁48	-3786
▁181	-3787
▁science	-3788
MS	-3789
▁perm	-3790
▁symb	-3791
cend	-3792
▁uses	-3793
▁Parliament	-3794
▁economic	-3795
▁bank	-3796
ecting	-3797
▁Go	-3798
gypt	-3799
▁source	-3800
▁BC	-3801
▁spl	-3802
▁42	-3803
▁News	-3804
▁Games	-3805
ka	-3806
▁quality	-3807
iated	-3808
▁defend	-3809
writ	-3810
olf	-3811
thel	-3812
▁lear	-3813
▁hundred	-3814
▁Stan	-3815
▁settle	-3816
ulations	-3817
▁Mic	-3818
▁Arm	-3819
▁conducted	-3820
▁starting	-3821
▁impact	-3822
▁Sur	-3823
▁your	-3824
▁specific	-3825
cle	-3826
▁strugg	-3827
▁allowing	-3828
▁Egypt	-3829
thur	-3830
▁Society	-3831
▁Fin	-3832
▁1942	-3833
▁presence	-3834
▁ple	-3835
▁Book	-3836
▁amount	-3837
bed	-3838
▁beat	-3839
▁viewers	-3840
▁du	-3841
ait	-3842
▁sides	-3843
▁metres	-3844
aph	-3845
▁dance	-3846
wh	-3847
▁chap	-3848
▁rule	-3849
▁exhib	-3850
▁suppl	-3851
▁Prince	-3852
▁univers	-3853
▁Stephen	-3854
▁Southern	-3855
▁distinct	-3856
▁multiple	-3857
▁transferred	-3858
▁raid	-3859
▁potential	-3860
▁Committee	-3861
▁foreign	-3862
een	-3863
▁Oxford	-3864
▁contrast	-3865
▁Win	-3866
▁peaked	-3867
▁Latin	-3868
▁Oh	-3869
irm	-3870
ols	-3871
▁enemy	-3872
ingu	-3873
▁Jer	-3874
▁becomes	-3875
▁captain	-3876
▁traffic	-3877
itiz	-3878
arent	-3879
▁owned	-3880
▁Tri	-3881
▁things	-3882
▁founded	-3883
▁greater	-3884
▁mess	-3885
▁Like	-3886
▁Georg	-3887
▁Admiral	-3888
▁concluded	-3889
▁vocal	-3890
▁portion	-3891
▁Spec	-3892
gl	-3893
▁65	-3894
▁scoring	-3895
▁castle	-3896
▁Joseph	-3897
sych	-3898
▁respond	-3899
▁property	-3900
▁stories	-3901
▁attempts	-3902
▁encoun	-3903
▁Boston	-3904
▁opt	-3905
▁relatively	-3906
II	-3907
▁Manchester	-3908
▁Chief	-3909
▁Sat	-3910
▁primarily	-3911
iance	-3912
▁demonst	-3913
▁Harrison	-3914
inet	-3915
▁federal	-3916
▁financial	-3917
▁Because	-3918
▁Before	-3919
▁Hal	-3920
▁Jeff	-3921
▁actually	-3922
▁animals	-3923
▁Brad	-3924
▁Captain	-3925
▁Class	-3926
ressive	-3927
▁observed	-3928
▁Hurricane	-3929
▁Swed	-3930
▁collection	-3931
fect	-3932
▁Sol	-3933
ellig	-3934
▁opportun	-3935
▁Vietn	-3936
▁titled	-3937
▁tourn	-3938
▁featuring	-3939
▁47	-3940
▁lif	-3941
▁Kh	-3942
▁Form	-3943
▁writers	-3944
ita	-3945
istics	-3946
▁write	-3947
aud	-3948
▁1944	-3949
▁journal	-3950
▁strength	-3951
▁Sil	-3952
▁weaken	-3953
▁inch	-3954
▁Bridge	-3955
▁wor	-3956
ours	-3957
▁Ever	-3958
▁situation	-3959
▁distance	-3960
▁spot	-3961
▁paid	-3962
▁premi	-3963
▁mechan	-3964
▁parents	-3965
▁Tw	-3966
▁Commission	-3967
▁independent	-3968
▁Battalion	-3969
▁figure	-3970
umber	-3971
▁Ott	-3972
▁share	-3973
▁acting	-3974
▁actor	-3975
▁companies	-3976
right	-3977
▁divided	-3978
▁Def	-3979
▁Fred	-3980
eds	-3981
▁onto	-3982
▁Tim	-3983
▁Little	-3984
ani	-3985
▁Paris	-3986
▁collabor	-3987
▁Produ	-3988
▁Den	-3989
▁mind	-3990
▁slightly	-3991
▁target	-3992
▁piece	-3993
▁Series	-3994
▁Life	-3995
▁function	-3996
▁52	-3997
▁selling	-3998
▁46	-3999
perial	-4000
▁Columb	-4001
▁reform	-4002
▁64	-4003
▁powerful	-4004
▁Bat	-4005
ricket	-4006
▁innings	-4007
▁Carl	-4008
▁rating	-4009
▁concent	-4010
▁torped	-4011
▁Entertain	-4012
▁plays	-4013
thlet	-4014
▁lot	-4015
▁broke	-4016
▁rough	-4017
▁today	-4018
▁BBC	-4019
ils	-4020
▁era	-4021
▁Ver	-4022
▁Youn	-4023
chest	-4024
istry	-4025
▁actions	-4026
▁ultimately	-4027
▁Croat	-4028
▁waters	-4029
▁mel	-4030
oration	-4031
▁trial	-4032
▁cho	-4033
▁square	-4034
▁maximum	-4035
▁Luc	-4036
▁dise	-4037
▁43	-4038
udd	-4039
uge	-4040
▁Histor	-4041
ada	-4042
▁tend	-4043
▁pilot	-4044
▁bound	-4045
annel	-4046
astic	-4047
▁Academy	-4048
▁completely	-4049
▁Max	-4050
rown	-4051
▁sought	-4052
rel	-4053
acts	-4054
▁interp	-4055
▁1920	-4056
▁1945	-4057
▁policy	-4058
lam	-4059
▁scale	-4060
sw	-4061
anna	-4062
▁society	-4063
▁Mod	-4064
▁blue	-4065
▁Pan	-4066
force	-4067
▁mainly	-4068
▁44	-4069
▁behav	-4070
▁Museum	-4071
▁log	-4072
▁Saint	-4073
rupt	-4074
▁Line	-4075
▁designated	-4076
▁1941	-4077
▁ess	-4078
▁hus	-4079
load	-4080
▁officials	-4081
▁conver	-4082
▁struck	-4083
mas	-4084
mond	-4085
▁activity	-4086
▁combined	-4087
▁influenced	-4088
ux	-4089
▁transl	-4090
▁task	-4091
▁wear	-4092
cers	-4093
olved	-4094
▁search	-4095
stein	-4096
ylvan	-4097
▁Entertainment	-4098
▁Italy	-4099
▁150	-4100
while	-4101
▁vess	-4102
▁Pop	-4103
▁thir	-4104
▁thous	-4105
▁calling	-4106
▁gar	-4107
ees	-4108
▁alongside	-4109
▁Way	-4110
▁northeast	-4111
▁seconds	-4112
▁batter	-4113
under	-4114
▁Brigade	-4115
▁sout	-4116
▁Americans	-4117
▁corn	-4118
▁sources	-4119
▁winter	-4120
orses	-4121
▁background	-4122
itan	-4123
▁Lee	-4124
▁webs	-4125
alle	-4126
▁Ire	-4127
▁theory	-4128
▁seg	-4129
aga	-4130
▁Hor	-4131
▁ice	-4132
▁recent	-4133
mark	-4134
▁suc	-4135
▁gained	-4136
▁nominated	-4137
rative	-4138
▁electric	-4139
▁crow	-4140
▁Gre	-4141
▁platform	-4142
▁artists	-4143
▁Conf	-4144
▁problem	-4145
▁Van	-4146
▁mem	-4147
▁encour	-4148
▁Regiment	-4149
iano	-4150
▁Tod	-4151
▁widely	-4152
▁naval	-4153
▁Wind	-4154
▁systems	-4155
▁promoted	-4156
quarters	-4157
aven	-4158
ya	-4159
▁confirmed	-4160
ini	-4161
▁news	-4162
▁reaching	-4163
▁Ireland	-4164
▁results	-4165
▁proved	-4166
▁Avenue	-4167
illa	-4168
HL	-4169
osaur	-4170
▁passing	-4171
ibrary	-4172
▁albums	-4173
rate	-4174
▁explained	-4175
▁subsequent	-4176
▁Fleet	-4177
▁greatest	-4178
adel	-4179
▁conflict	-4180
▁Add	-4181
▁invasion	-4182
ota	-4183
▁content	-4184
▁wick	-4185
▁1989	-4186
▁coming	-4187
▁peace	-4188
▁charge	-4189
▁sixth	-4190
▁hero	-4191
▁resist	-4192
nown	-4193
▁northwest	-4194
▁county	-4195
ube	-4196
▁shortly	-4197
▁1943	-4198
▁weather	-4199
▁Good	-4200
▁versions	-4201
▁adj	-4202
oured	-4203
▁serve	-4204
▁causing	-4205
▁says	-4206
▁sust	-4207
▁Orig	-4208
hew	-4209
pe	-4210
▁expressed	-4211
▁path	-4212
▁reception	-4213
▁Ell	-4214
▁Victoria	-4215
tation	-4216
▁seek	-4217
▁ir	-4218
▁burn	-4219
▁Ray	-4220
iced	-4221
itness	-4222
▁residents	-4223
▁Catholic	-4224
▁emot	-4225
▁border	-4226
▁Bus	-4227
▁Tropical	-4228
▁soundtrack	-4229
TV	-4230
▁cities	-4231
▁sn	-4232
▁Charl	-4233
▁Valley	-4234
▁seasons	-4235
aling	-4236
▁appearances	-4237
▁favour	-4238
▁sense	-4239
ategory	-4240
omy	-4241
▁Norm	-4242
▁Ty	-4243
onn	-4244
▁Work	-4245
▁sexual	-4246
▁Alb	-4247
▁require	-4248
▁51	-4249
▁chem	-4250
▁Nin	-4251
▁hospital	-4252
town	-4253
▁green	-4254
▁identified	-4255
▁physical	-4256
▁Sant	-4257
▁older	-4258
ips	-4259
▁Light	-4260
ancy	-4261
▁Aut	-4262
▁Though	-4263
▁hands	-4264
ih	-4265
▁tells	-4266
▁true	-4267
▁offer	-4268
▁document	-4269
▁Live	-4270
▁dedic	-4271
bit	-4272
▁kg	-4273
ighth	-4274
▁iron	-4275
▁Middle	-4276
▁artillery	-4277
▁represented	-4278
▁Commun	-4279
bon	-4280
▁weapons	-4281
▁Liber	-4282
arden	-4283
▁ahead	-4284
▁Through	-4285
▁Football	-4286
unction	-4287
eption	-4288
ym	-4289
▁Dev	-4290
▁Show	-4291
▁gas	-4292
▁negot	-4293
ylvania	-4294
▁heavily	-4295
▁Upon	-4296
▁eas	-4297
▁pun	-4298
ero	-4299
za	-4300
▁supp	-4301
▁Far	-4302
▁Lo	-4303
abeth	-4304
▁Dutch	-4305
▁defense	-4306
AS	-4307
itable	-4308
▁student	-4309
▁image	-4310
▁spread	-4311
▁alone	-4312
▁apparent	-4313
▁Week	-4314
▁studies	-4315
▁Direct	-4316
▁officially	-4317
▁Jul	-4318
▁Ma	-4319
▁husband	-4320
▁executive	-4321
▁district	-4322
▁Bey	-4323
▁Tay	-4324
▁Sub	-4325
▁Young	-4326
▁farm	-4327
▁Eliz	-4328
essions	-4329
▁instit	-4330
▁debuted	-4331
▁Dun	-4332
▁Albert	-4333
▁Top	-4334
▁prominent	-4335
▁capture	-4336
▁consisted	-4337
▁injury	-4338
▁wild	-4339
▁send	-4340
▁pack	-4341
▁equipment	-4342
▁organization	-4343
▁fired	-4344
▁bit	-4345
▁stone	-4346
▁pattern	-4347
▁argued	-4348
▁resc	-4349
▁aired	-4350
▁figures	-4351
▁prepar	-4352
▁surpris	-4353
▁instrument	-4354
▁exped	-4355
▁growth	-4356
▁Ill	-4357
▁couple	-4358
acity	-4359
▁doing	-4360
▁returning	-4361
▁Civil	-4362
▁Homer	-4363
▁Bond	-4364
▁Ry	-4365
▁contemporary	-4366
pool	-4367
▁pict	-4368
▁Kr	-4369
ockey	-4370
▁Vol	-4371
▁hun	-4372
▁Rog	-4373
ushed	-4374
▁poet	-4375
▁ring	-4376
▁pal	-4377
▁weight	-4378
urban	-4379
▁Men	-4380
▁cert	-4381
▁Av	-4382
▁drug	-4383
▁laid	-4384
▁leaders	-4385
▁doub	-4386
▁affected	-4387
▁Northern	-4388
▁matter	-4389
▁pieces	-4390
▁Di	-4391
▁floor	-4392
▁habit	-4393
▁magn	-4394
lines	-4395
bur	-4396
lers	-4397
▁Ram	-4398
▁step	-4399
▁eth	-4400
▁maintained	-4401
▁propos	-4402
▁Fre	-4403
resp	-4404
▁earth	-4405
▁occasion	-4406
appen	-4407
▁visited	-4408
▁tun	-4409
▁rang	-4410
▁Mat	-4411
▁here	-4412
▁comes	-4413
▁communic	-4414
▁shell	-4415
▁speech	-4416
▁Daniel	-4417
▁crowd	-4418
▁criticized	-4419
▁Dam	-4420
▁600	-4421
▁Storm	-4422
ports	-4423
▁activities	-4424
▁termin	-4425
▁stra	-4426
▁Carolina	-4427
▁Fer	-4428
ental	-4429
inson	-4430
▁attract	-4431
▁exec	-4432
▁citiz	-4433
acement	-4434
ifying	-4435
▁tournament	-4436
▁reign	-4437
▁toward	-4438
▁ox	-4439
▁singles	-4440
▁emph	-4441
▁Gal	-4442
▁hall	-4443
▁Sk	-4444
emic	-4445
▁trees	-4446
▁Jon	-4447
▁reference	-4448
▁formation	-4449
ocked	-4450
▁Scottish	-4451
▁senior	-4452
▁1987	-4453
▁setting	-4454
elve	-4455
▁adapt	-4456
▁surre	-4457
▁territory	-4458
▁worldwide	-4459
▁medical	-4460
▁Hard	-4461
▁Government	-4462
▁trying	-4463
▁unk	-4464
▁1988	-4465
▁stations	-4466
rog	-4467
▁bud	-4468
▁Marsh	-4469
▁Bre	-4470
▁System	-4471
▁appl	-4472
ruit	-4473
▁birds	-4474
▁Fantasy	-4475
estic	-4476
▁pan	-4477
▁delay	-4478
▁Writ	-4479
▁Operation	-4480
▁Holly	-4481
ners	-4482
▁Background	-4483
▁machine	-4484
▁Governor	-4485
▁claims	-4486
▁fellow	-4487
▁doll	-4488
▁murder	-4489
▁Ocean	-4490
▁District	-4491
embly	-4492
▁historian	-4493
▁guest	-4494
▁bul	-4495
▁rainfall	-4496
▁risk	-4497
▁dog	-4498
▁Field	-4499
▁fully	-4500
▁accident	-4501
▁Penns	-4502
▁cell	-4503
eld	-4504
▁Rom	-4505
▁value	-4506
ivity	-4507
▁load	-4508
▁therefore	-4509
▁god	-4510
uled	-4511
▁Duke	-4512
▁Home	-4513
▁split	-4514
eed	-4515
▁chosen	-4516
▁treatment	-4517
▁Colon	-4518
▁Guard	-4519
▁university	-4520
▁53	-4521
gian	-4522
▁twice	-4523
omers	-4524
uct	-4525
amber	-4526
▁Tem	-4527
▁Studios	-4528
velopment	-4529
▁terr	-4530
▁frequently	-4531
▁supply	-4532
▁contest	-4533
uls	-4534
▁Polish	-4535
▁reports	-4536
▁Kar	-4537
orne	-4538
stone	-4539
▁Girl	-4540
rael	-4541
▁Short	-4542
▁leaves	-4543
resh	-4544
▁governor	-4545
▁sens	-4546
▁Senate	-4547
▁remark	-4548
ić	-4549
▁paper	-4550
aved	-4551
stitution	-4552
▁Eastern	-4553
▁label	-4554
▁faced	-4555
▁agg	-4556
ampion	-4557
▁dyn	-4558
ordin	-4559
▁Beat	-4560
▁opin	-4561
▁walls	-4562
▁hyd	-4563
▁follows	-4564
iot	-4565
ror	-4566
eller	-4567
▁Lew	-4568
▁billion	-4569
anger	-4570
▁Rod	-4571
ledge	-4572
▁operated	-4573
▁Ros	-4574
ading	-4575
▁grew	-4576
▁manu	-4577
▁surrounding	-4578
▁Andrew	-4579
▁contained	-4580
▁85	-4581
▁Mean	-4582
▁degree	-4583
onents	-4584
▁herself	-4585
▁condition	-4586
▁Christmas	-4587
▁horses	-4588
▁planet	-4589
▁manufact	-4590
▁MD	-4591
▁accompan	-4592
▁ut	-4593
ayer	-4594
▁wounded	-4595
▁typically	-4596
▁escape	-4597
▁swe	-4598
▁Allied	-4599
▁Os	-4600
▁passes	-4601
rect	-4602
orter	-4603
▁color	-4604
▁simply	-4605
edd	-4606
isco	-4607
▁master	-4608
illy	-4609
▁fuel	-4610
▁Wilson	-4611
▁sle	-4612
▁brown	-4613
▁Night	-4614
▁railway	-4615
▁Corn	-4616
▁Bart	-4617
▁element	-4618
▁draft	-4619
utation	-4620
gend	-4621
▁Taylor	-4622
ety	-4623
▁lives	-4624
CA	-4625
▁editor	-4626
▁orders	-4627
▁1986	-4628
▁arms	-4629
ala	-4630
▁Jud	-4631
▁Elizabeth	-4632
▁serving	-4633
▁bal	-4634
antly	-4635
▁nothing	-4636
▁Alexander	-4637
▁authority	-4638
▁chose	-4639
▁opposed	-4640
▁workers	-4641
▁vote	-4642
▁cannot	-4643
▁consecutive	-4644
▁camer	-4645
isters	-4646
▁moment	-4647
▁Mike	-4648
▁newly	-4649
▁Joe	-4650
▁Each	-4651
ricult	-4652
izes	-4653
▁native	-4654
▁unknown	-4655
ancing	-4656
▁participated	-4657
ias	-4658
aming	-4659
ucky	-4660
▁growing	-4661
pass	-4662
▁website	-4663
▁casual	-4664
agn	-4665
▁54	-4666
▁emphas	-4667
uous	-4668
▁entr	-4669
▁phil	-4670
▁attrib	-4671
▁fan	-4672
▁producers	-4673
fully	-4674
▁newspaper	-4675
▁rear	-4676
ographer	-4677
igg	-4678
▁bass	-4679
▁Of	-4680
▁fair	-4681
▁losing	-4682
▁Castle	-4683
▁adopted	-4684
▁advanced	-4685
▁extra	-4686
▁filming	-4687
▁Festival	-4688
▁heard	-4689
mit	-4690
▁Hum	-4691
▁severe	-4692
▁Pennsylvania	-4693
▁offensive	-4694
▁feed	-4695
ilies	-4696
andy	-4697
▁fiction	-4698
azz	-4699
▁opposition	-4700
enge	-4701
imens	-4702
▁Exp	-4703
▁extend	-4704
▁spirit	-4705
▁Jac	-4706
▁Det	-4707
▁capacity	-4708
▁95	-4709
enger	-4710
▁Pers	-4711
▁Islands	-4712
▁What	-4713
▁basis	-4714
▁sequence	-4715
▁actors	-4716
▁council	-4717
▁psych	-4718
then	-4719
▁guard	-4720
▁ends	-4721
pton	-4722
▁Reception	-4723
▁56	-4724
▁Sound	-4725
▁weak	-4726
▁Che	-4727
▁squadron	-4728
ype	-4729
▁silver	-4730
▁Gi	-4731
▁advant	-4732
▁prin	-4733
▁abandoned	-4734
rong	-4735
▁Irish	-4736
▁177	-4737
▁Further	-4738
orship	-4739
▁compar	-4740
ev	-4741
tar	-4742
▁rival	-4743
▁WW	-4744
▁rom	-4745
▁extr	-4746
▁prompt	-4747
▁Inst	-4748
rid	-4749
▁Blue	-4750
▁Wat	-4751
▁flying	-4752
▁kick	-4753
ables	-4754
▁Tech	-4755
▁honor	-4756
isers	-4757
▁Harry	-4758
ager	-4759
more	-4760
▁elev	-4761
▁creating	-4762
▁bey	-4763
▁Card	-4764
▁Tra	-4765
ocated	-4766
▁Jersey	-4767
gu	-4768
▁Spain	-4769
▁filmed	-4770
▁Ret	-4771
▁launch	-4772
▁coal	-4773
▁regarded	-4774
▁Pen	-4775
▁happen	-4776
▁normal	-4777
▁expansion	-4778
▁ast	-4779
▁enter	-4780
▁criticism	-4781
▁individuals	-4782
▁poll	-4783
lement	-4784
▁homes	-4785
▁agreement	-4786
▁SS	-4787
▁beyond	-4788
▁incident	-4789
hi	-4790
▁Land	-4791
▁Gall	-4792
▁failure	-4793
▁178	-4794
▁Coast	-4795
▁Fam	-4796
▁evac	-4797
▁spect	-4798
▁Square	-4799
▁deploy	-4800
▁dismiss	-4801
▁famous	-4802
apers	-4803
▁eye	-4804
add	-4805
onc	-4806
▁spring	-4807
▁chair	-4808
▁sail	-4809
▁sports	-4810
▁measure	-4811
▁97	-4812
▁challeng	-4813
▁1939	-4814
▁possibly	-4815
▁historical	-4816
▁negative	-4817
▁liber	-4818
uses	-4819
▁boat	-4820
▁inte	-4821
▁bodies	-4822
ef	-4823
TC	-4824
▁achieved	-4825
gar	-4826
▁strike	-4827
min	-4828
▁believe	-4829
▁Are	-4830
▁contact	-4831
▁76	-4832
▁mob	-4833
▁progress	-4834
▁roles	-4835
▁unf	-4836
BA	-4837
▁Us	-4838
▁Public	-4839
▁Production	-4840
ote	-4841
▁killing	-4842
▁narrow	-4843
▁retired	-4844
anda	-4845
▁ideas	-4846
imet	-4847
▁Bab	-4848
ifications	-4849
▁Institute	-4850
ano	-4851
▁Lind	-4852
ienced	-4853
▁drive	-4854
▁Israel	-4855
▁disease	-4856
▁ur	-4857
rich	-4858
▁Wild	-4859
▁torpedo	-4860
mosp	-4861
onent	-4862
▁CD	-4863
▁benef	-4864
FA	-4865
▁rid	-4866
▁briefly	-4867
▁vo	-4868
▁1985	-4869
▁Revolution	-4870
▁Due	-4871
▁Broad	-4872
▁Arthur	-4873
▁effective	-4874
▁1968	-4875
▁imag	-4876
▁armed	-4877
▁tower	-4878
▁applic	-4879
▁budget	-4880
▁diam	-4881
▁Elect	-4882
▁receive	-4883
▁repeated	-4884
▁granted	-4885
▁necessary	-4886
▁administration	-4887
▁perman	-4888
▁personnel	-4889
▁Mul	-4890
▁tree	-4891
▁roads	-4892
▁rejected	-4893
▁Meanwhile	-4894
edom	-4895
▁table	-4896
▁twelve	-4897
▁Cat	-4898
▁Republican	-4899
aith	-4900
▁kilometres	-4901
▁End	-4902
▁Germ	-4903
▁pet	-4904
▁improved	-4905
▁leadership	-4906
▁Bul	-4907
▁mis	-4908
▁gross	-4909
▁Doctor	-4910
▁Person	-4911
▁Album	-4912
iny	-4913
avalry	-4914
▁interchange	-4915
▁Clark	-4916
▁column	-4917
▁extensive	-4918
iner	-4919
▁inh	-4920
▁data	-4921
▁Cub	-4922
▁Ohio	-4923
▁yellow	-4924
imal	-4925
kins	-4926
▁66	-4927
ourney	-4928
▁turns	-4929
▁infantry	-4930
▁plants	-4931
▁purpose	-4932
▁straight	-4933
▁Sund	-4934
▁management	-4935
▁lands	-4936
▁express	-4937
iments	-4938
▁landing	-4939
▁defin	-4940
▁paralle	-4941
▁Ul	-4942
▁describes	-4943
▁Mid	-4944
▁expanded	-4945
▁seat	-4946
▁Secretary	-4947
▁Board	-4948
▁solo	-4949
▁choice	-4950
▁franch	-4951
▁successfully	-4952
▁Ly	-4953
▁61	-4954
▁broken	-4955
▁mile	-4956
lusion	-4957
▁Liver	-4958
▁crossing	-4959
▁Braz	-4960
▁learn	-4961
adelph	-4962
▁didn	-4963
▁Head	-4964
▁1984	-4965
▁fought	-4966
▁deliver	-4967
▁Philadelph	-4968
▁intellig	-4969
oln	-4970
▁explos	-4971
iday	-4972
ocks	-4973
▁animal	-4974
▁organized	-4975
▁Hy	-4976
▁caught	-4977
▁excl	-4978
uate	-4979
▁vehicles	-4980
▁commissioned	-4981
▁suggests	-4982
▁Les	-4983
▁acquired	-4984
la	-4985
▁800	-4986
▁Fe	-4987
▁places	-4988
▁committee	-4989
▁chor	-4990
haps	-4991
▁roof	-4992
etball	-4993
▁ancient	-4994
▁drama	-4995
▁Even	-4996
▁Georgia	-4997
set	-4998
▁creation	-4999
hol	-5000
▁Never	-5001
▁Cambridge	-5002
▁types	-5003
▁Ash	-5004
stream	-5005
▁glob	-5006
▁gives	-5007
▁Philadelphia	-5008
▁article	-5009
▁comedy	-5010
▁seventh	-5011
ico	-5012
▁unsu	-5013
▁nuclear	-5014
▁prefer	-5015
▁Burn	-5016
▁Hit	-5017
▁Mir	-5018
iable	-5019
▁wave	-5020
▁Bell	-5021
▁soft	-5022
▁fat	-5023
iate	-5024
▁row	-5025
appy	-5026
▁Bru	-5027
▁Sher	-5028
▁authorities	-5029
▁RA	-5030
▁headquarters	-5031
▁120	-5032
▁Const	-5033
▁Mov	-5034
▁contain	-5035
attle	-5036
etts	-5037
▁Also	-5038
war	-5039
▁commonly	-5040
▁centuries	-5041
▁determined	-5042
▁genus	-5043
▁islands	-5044
▁1967	-5045
iations	-5046
▁Addition	-5047
▁mentioned	-5048
▁Russia	-5049
▁IS	-5050
▁recently	-5051
rif	-5052
▁looking	-5053
iana	-5054
▁bott	-5055
▁controlled	-5056
igr	-5057
▁beaut	-5058
restling	-5059
▁SR	-5060
umes	-5061
▁roll	-5062
▁street	-5063
erc	-5064
akers	-5065
▁Prot	-5066
▁Common	-5067
▁sets	-5068
▁families	-5069
▁Among	-5070
▁household	-5071
▁security	-5072
▁Liverpool	-5073
▁Wars	-5074
▁upgr	-5075
▁finds	-5076
▁experiment	-5077
▁Cy	-5078
▁aim	-5079
▁suppor	-5080
ura	-5081
▁decre	-5082
▁Nintend	-5083
▁57	-5084
▁advert	-5085
▁standing	-5086
▁drop	-5087
▁Rel	-5088
ima	-5089
▁acad	-5090
▁illust	-5091
▁Nintendo	-5092
▁Lar	-5093
▁singing	-5094
oted	-5095
▁withdraw	-5096
▁Linc	-5097
▁battalion	-5098
▁Columbia	-5099
▁reflect	-5100
▁unique	-5101
▁Prime	-5102
▁Earl	-5103
itled	-5104
uting	-5105
▁Ep	-5106
fort	-5107
agement	-5108
▁Arg	-5109
▁containing	-5110
▁entirely	-5111
▁Gil	-5112
▁height	-5113
▁cultural	-5114
▁deck	-5115
▁Jenn	-5116
▁fish	-5117
▁dial	-5118
▁orchest	-5119
arts	-5120
▁62	-5121
▁finish	-5122
▁touchdown	-5123
▁Lincoln	-5124
▁contributed	-5125
▁protect	-5126
▁Singap	-5127
▁Chap	-5128
▁themes	-5129
▁Korean	-5130
▁younger	-5131
▁provides	-5132
▁Development	-5133
▁Asia	-5134
ishes	-5135
▁defence	-5136
▁flooding	-5137
▁unp	-5138
▁Lieutenant	-5139
▁1983	-5140
▁Brazil	-5141
acks	-5142
roll	-5143
▁mist	-5144
▁strik	-5145
▁atmosp	-5146
▁awards	-5147
▁titles	-5148
▁purchased	-5149
oma	-5150
▁Rol	-5151
▁Jewish	-5152
amin	-5153
outs	-5154
▁la	-5155
▁sac	-5156
▁arrival	-5157
ipl	-5158
▁scheduled	-5159
▁powers	-5160
▁defensive	-5161
▁Child	-5162
▁Francisco	-5163
▁resemb	-5164
▁hol	-5165
▁accompanied	-5166
▁Singapore	-5167
▁ceremony	-5168
▁quite	-5169
inity	-5170
▁1964	-5171
respond	-5172
▁convers	-5173
▁expedition	-5174
▁Hay	-5175
illing	-5176
▁unus	-5177
▁thing	-5178
▁People	-5179
▁worth	-5180
▁1969	-5181
▁perfect	-5182
▁existing	-5183
▁locations	-5184
icial	-5185
▁interact	-5186
▁performing	-5187
▁advantage	-5188
water	-5189
▁Carey	-5190
room	-5191
atures	-5192
▁try	-5193
▁Office	-5194
▁dedicated	-5195
▁Six	-5196
▁computer	-5197
▁philos	-5198
▁Pot	-5199
▁extrem	-5200
▁Disney	-5201
▁intensity	-5202
▁occupied	-5203
Station	-5204
▁1914	-5205
▁store	-5206
ulate	-5207
gn	-5208
▁58	-5209
laim	-5210
ava	-5211
▁why	-5212
▁squad	-5213
▁PlayStation	-5214
▁Dark	-5215
▁74	-5216
▁1918	-5217
▁HMS	-5218
▁Su	-5219
▁fresh	-5220
▁mounted	-5221
▁Tam	-5222
▁Lis	-5223
▁bat	-5224
▁Order	-5225
▁1982	-5226
agan	-5227
ashion	-5228
▁Ven	-5229
▁Hun	-5230
▁1971	-5231
▁Anderson	-5232
▁cricket	-5233
▁nob	-5234
▁closely	-5235
▁Steve	-5236
▁mouth	-5237
▁firm	-5238
▁consists	-5239
▁currently	-5240
▁Lewis	-5241
▁fix	-5242
▁Key	-5243
▁1966	-5244
▁Ur	-5245
▁session	-5246
▁Hon	-5247
▁Miller	-5248
▁1972	-5249
▁Conference	-5250
▁Balt	-5251
▁1979	-5252
▁industrial	-5253
▁simple	-5254
wall	-5255
▁Byz	-5256
▁Turn	-5257
▁tail	-5258
▁72	-5259
▁piano	-5260
▁Once	-5261
▁facilities	-5262
racted	-5263
▁elimin	-5264
▁supporting	-5265
yles	-5266
▁drawn	-5267
▁Olympic	-5268
▁lic	-5269
▁cold	-5270
▁Brook	-5271
▁Radio	-5272
▁belong	-5273
▁trains	-5274
▁protection	-5275
▁egg	-5276
▁graph	-5277
▁Die	-5278
▁boats	-5279
▁rated	-5280
▁Bad	-5281
ilton	-5282
▁Grant	-5283
▁rise	-5284
▁Brian	-5285
▁Kel	-5286
▁tim	-5287
▁defined	-5288
▁Byzant	-5289
▁selection	-5290
ao	-5291
▁steam	-5292
rons	-5293
▁1965	-5294
▁regions	-5295
▁submar	-5296
▁Railway	-5297
▁protected	-5298
▁Conn	-5299
▁calls	-5300
uzz	-5301
▁NHL	-5302
▁#	-5303
▁Emperor	-5304
▁motion	-5305
▁structures	-5306
▁comic	-5307
mouth	-5308
▁throw	-5309
hens	-5310
▁trail	-5311
▁aid	-5312
▁cry	-5313
▁focused	-5314
▁opportunity	-5315
▁engaged	-5316
▁receiving	-5317
▁labor	-5318
▁shark	-5319
▁analysis	-5320
▁shooting	-5321
▁1975	-5322
▁Mah	-5323
▁citizens	-5324
▁correspond	-5325
▁hair	-5326
▁lap	-5327
ola	-5328
▁pros	-5329
iration	-5330
▁notable	-5331
▁strengthen	-5332
och	-5333
▁sport	-5334
▁observ	-5335
▁Gulf	-5336
▁adap	-5337
▁motor	-5338
▁Jr	-5339
usc	-5340
▁experienced	-5341
▁Shak	-5342
▁Germans	-5343
▁Serb	-5344
▁holding	-5345
▁providing	-5346
▁conference	-5347
▁Press	-5348
▁Hollywood	-5349
▁Walter	-5350
▁Mot	-5351
▁Only	-5352
▁visual	-5353
ults	-5354
▁1974	-5355
▁mountain	-5356
▁resident	-5357
▁Davis	-5358
▁dry	-5359
▁59	-5360
▁hired	-5361
▁southeast	-5362
▁charts	-5363
▁eyes	-5364
▁viewed	-5365
▁Summer	-5366
unior	-5367
ifically	-5368
▁rapidly	-5369
▁Bas	-5370
▁recognized	-5371
▁branch	-5372
▁merch	-5373
▁volume	-5374
▁1973	-5375
IA	-5376
▁transform	-5377
opher	-5378
▁Democratic	-5379
▁99	-5380
▁Pu	-5381
▁Review	-5382
▁Barb	-5383
▁scholars	-5384
▁sites	-5385
vention	-5386
inger	-5387
zer	-5388
▁casualties	-5389
▁gain	-5390
▁rob	-5391
▁shared	-5392
uan	-5393
▁teach	-5394
▁mut	-5395
▁Water	-5396
▁Special	-5397
▁Between	-5398
▁concer	-5399
▁publication	-5400
▁vac	-5401
▁Jean	-5402
▁parallel	-5403
inth	-5404
▁prote	-5405
▁temperature	-5406
▁Inc	-5407
▁digital	-5408
▁1976	-5409
▁Bor	-5410
essed	-5411
▁Mu	-5412
▁Att	-5413
▁economy	-5414
▁Sa	-5415
burgh	-5416
▁moder	-5417
▁developing	-5418
FL	-5419
▁Rome	-5420
▁reaction	-5421
▁Gib	-5422
▁edge	-5423
sey	-5424
▁steel	-5425
standing	-5426
▁intersection	-5427
▁cool	-5428
▁Princ	-5429
▁cart	-5430
friend	-5431
olt	-5432
▁symbol	-5433
▁approved	-5434
▁secondary	-5435
▁Fall	-5436
▁chance	-5437
oncé	-5438
▁63	-5439
▁Lady	-5440
▁von	-5441
▁Bank	-5442
▁Kir	-5443
▁wa	-5444
▁losses	-5445
▁Down	-5446
▁prepared	-5447
omew	-5448
▁belief	-5449
▁substant	-5450
▁letters	-5451
▁Daily	-5452
▁Musl	-5453
▁witness	-5454
▁significantly	-5455
▁Gord	-5456
▁Women	-5457
ingly	-5458
▁Lab	-5459
▁enl	-5460
▁bands	-5461
iful	-5462
▁Var	-5463
▁77	-5464
▁73	-5465
▁harm	-5466
rence	-5467
▁sort	-5468
▁Greg	-5469
▁save	-5470
ns	-5471
▁Po	-5472
iter	-5473
▁Tro	-5474
▁domestic	-5475
▁UN	-5476
▁Prov	-5477
▁myth	-5478
▁rac	-5479
▁franchise	-5480
▁knew	-5481
iger	-5482
▁ven	-5483
▁literature	-5484
▁goes	-5485
▁Beyoncé	-5486
▁Nap	-5487
▁unsuccess	-5488
▁instruct	-5489
▁actress	-5490
▁southwest	-5491
▁Syd	-5492
▁Ka	-5493
▁technology	-5494
▁heads	-5495
▁roughly	-5496
▁250	-5497
▁survey	-5498
yer	-5499
▁card	-5500
▁advent	-5501
▁descend	-5502
▁mic	-5503
igation	-5504
ographic	-5505
theless	-5506
▁painting	-5507
awa	-5508
▁adult	-5509
▁anything	-5510
ients	-5511
▁cars	-5512
▁Command	-5513
▁semi	-5514
▁urban	-5515
▁projects	-5516
▁Colonel	-5517
break	-5518
▁assault	-5519
▁lb	-5520
▁exact	-5521
▁brothers	-5522
achus	-5523
▁pitch	-5524
▁gameplay	-5525
▁resistance	-5526
eral	-5527
▁Naz	-5528
unte	-5529
▁hyp	-5530
▁storyline	-5531
▁Supreme	-5532
▁shape	-5533
▁Indust	-5534
▁Point	-5535
▁reasons	-5536
▁rules	-5537
▁employed	-5538
vest	-5539
▁Kentucky	-5540
▁core	-5541
▁daily	-5542
▁injured	-5543
▁tank	-5544
▁1946	-5545
▁watched	-5546
▁1981	-5547
▁Nick	-5548
▁shall	-5549
▁Station	-5550
asty	-5551
iminal	-5552
osa	-5553
onder	-5554
▁agent	-5555
▁cab	-5556
▁popularity	-5557
box	-5558
▁−	-5559
ologist	-5560
▁composition	-5561
▁ign	-5562
ropri	-5563
▁sand	-5564
▁perhaps	-5565
▁adding	-5566
▁enjoyed	-5567
▁IV	-5568
▁renamed	-5569
▁isol	-5570
▁getting	-5571
▁opinion	-5572
▁Spring	-5573
▁declined	-5574
▁Independ	-5575
▁fit	-5576
▁Norway	-5577
amm	-5578
▁compris	-5579
▁reputation	-5580
▁67	-5581
▁Mos	-5582
▁connected	-5583
gers	-5584
mann	-5585
▁estate	-5586
▁shaped	-5587
▁retire	-5588
▁Fair	-5589
▁1917	-5590
▁museum	-5591
▁Whit	-5592
▁drew	-5593
▁undert	-5594
▁regarding	-5595
▁Ten	-5596
worth	-5597
▁Olympics	-5598
▁lov	-5599
istan	-5600
▁poem	-5601
▁stages	-5602
▁converted	-5603
inking	-5604
▁views	-5605
▁Bern	-5606
heim	-5607
▁rend	-5608
▁Massachus	-5609
▁nor	-5610
▁Theat	-5611
itors	-5612
▁Sand	-5613
avel	-5614
ceived	-5615
▁agricult	-5616
▁allows	-5617
▁Philipp	-5618
onym	-5619
▁Golden	-5620
ador	-5621
▁alternative	-5622
omic	-5623
▁distingu	-5624
ua	-5625
▁Ross	-5626
▁calc	-5627
▁Massachusetts	-5628
▁Base	-5629
▁Main	-5630
ulpt	-5631
▁headed	-5632
▁Ob	-5633
▁nick	-5634
▁journey	-5635
bound	-5636
istol	-5637
▁depth	-5638
▁Abb	-5639
▁Walk	-5640
▁missing	-5641
▁cited	-5642
▁increasingly	-5643
▁Prem	-5644
▁sun	-5645
▁stadium	-5646
▁approached	-5647
osl	-5648
rets	-5649
▁turning	-5650
▁68	-5651
▁Dream	-5652
▁Airport	-5653
verse	-5654
▁96	-5655
▁responded	-5656
▁planning	-5657
▁easily	-5658
▁knowledge	-5659
▁Mas	-5660
▁exerc	-5661
▁wealth	-5662
▁Sus	-5663
▁1948	-5664
▁overl	-5665
▁160	-5666
enc	-5667
▁82	-5668
ipe	-5669
▁cells	-5670
▁escort	-5671
▁fashion	-5672
eper	-5673
▁Ron	-5674
▁succeeded	-5675
athan	-5676
▁collected	-5677
era	-5678
▁About	-5679
▁equal	-5680
psons	-5681
rett	-5682
▁safety	-5683
▁existence	-5684
▁Gra	-5685
▁constitution	-5686
▁Cur	-5687
▁rebu	-5688
ules	-5689
oir	-5690
▁Let	-5691
▁Plan	-5692
▁Simpsons	-5693
▁auth	-5694
ilding	-5695
ignment	-5696
▁introduction	-5697
▁models	-5698
▁occas	-5699
▁learned	-5700
▁sustained	-5701
▁trip	-5702
▁Imp	-5703
▁700	-5704
▁Hart	-5705
▁colle	-5706
unicip	-5707
▁operating	-5708
▁promotion	-5709
▁Han	-5710
▁tall	-5711
▁Init	-5712
▁1978	-5713
ba	-5714
▁carrying	-5715
▁Ball	-5716
▁baseball	-5717
▁exchange	-5718
apes	-5719
▁Songs	-5720
▁showing	-5721
▁rhy	-5722
▁limit	-5723
rin	-5724
▁Run	-5725
▁youth	-5726
▁buried	-5727
▁Vietnam	-5728
▁Imperial	-5729
▁87	-5730
wise	-5731
▁humans	-5732
▁credited	-5733
gal	-5734
mitted	-5735
uration	-5736
▁flu	-5737
▁depend	-5738
come	-5739
▁pul	-5740
▁arranged	-5741
▁Ottoman	-5742
▁improve	-5743
▁Sel	-5744
zen	-5745
▁seems	-5746
▁weakened	-5747
▁1915	-5748
▁designs	-5749
inary	-5750
▁Cape	-5751
▁Shortly	-5752
▁impl	-5753
▁producing	-5754
▁proceed	-5755
iat	-5756
▁joint	-5757
▁Poland	-5758
▁athlet	-5759
▁hydro	-5760
▁paint	-5761
▁freeway	-5762
▁Ken	-5763
▁1977	-5764
▁earliest	-5765
▁Sydney	-5766
▁lasted	-5767
▁shel	-5768
▁Maryland	-5769
▁landfall	-5770
▁settlement	-5771
▁note	-5772
▁Moore	-5773
▁description	-5774
▁retained	-5775
▁acres	-5776
▁69	-5777
▁Who	-5778
leton	-5779
state	-5780
▁78	-5781
▁Loc	-5782
ii	-5783
▁laws	-5784
▁appoint	-5785
▁van	-5786
▁Stew	-5787
▁flat	-5788
▁MTV	-5789
▁genre	-5790
▁Naval	-5791
▁Ha	-5792
▁Pict	-5793
▁Bal	-5794
▁bed	-5795
ivalent	-5796
▁programs	-5797
▁assistant	-5798
eman	-5799
▁replace	-5800
▁ton	-5801
▁playoff	-5802
▁Roy	-5803
▁install	-5804
▁reserve	-5805
▁consc	-5806
▁statement	-5807
▁applied	-5808
put	-5809
ivered	-5810
ources	-5811
issance	-5812
▁McG	-5813
iling	-5814
▁violence	-5815
▁1963	-5816
insula	-5817
▁scientific	-5818
▁entrance	-5819
▁coastal	-5820
iform	-5821
▁catch	-5822
▁trust	-5823
ader	-5824
bell	-5825
▁err	-5826
▁virt	-5827
án	-5828
otic	-5829
▁hits	-5830
▁91	-5831
▁neut	-5832
▁Jes	-5833
ato	-5834
▁aw	-5835
▁consequ	-5836
▁tick	-5837
▁Ca	-5838
osis	-5839
▁maintain	-5840
iege	-5841
othes	-5842
reets	-5843
▁Arts	-5844
▁exclus	-5845
▁patrol	-5846
▁items	-5847
▁battery	-5848
▁candidate	-5849
▁indicated	-5850
▁Jay	-5851
tical	-5852
▁towns	-5853
▁sculpt	-5854
▁gradually	-5855
▁distribution	-5856
▁1916	-5857
▁politics	-5858
▁synt	-5859
▁Bowl	-5860
▁FA	-5861
▁delivered	-5862
math	-5863
▁stopped	-5864
eler	-5865
▁filled	-5866
▁AD	-5867
▁Edu	-5868
▁independence	-5869
engers	-5870
▁details	-5871
▁sections	-5872
▁94	-5873
▁Mulder	-5874
▁stream	-5875
▁Confeder	-5876
▁tact	-5877
apped	-5878
▁combination	-5879
onia	-5880
▁select	-5881
▁supplies	-5882
▁ways	-5883
oard	-5884
time	-5885
▁cinem	-5886
eke	-5887
▁parties	-5888
▁engines	-5889
▁Pass	-5890
▁emp	-5891
▁camera	-5892
▁prisoners	-5893
ads	-5894
▁Bra	-5895
▁Gordon	-5896
▁ban	-5897
▁Fire	-5898
▁glass	-5899
▁appeal	-5900
▁IG	-5901
▁Rem	-5902
▁aware	-5903
▁Stadium	-5904
▁1919	-5905
▁Rhodes	-5906
▁register	-5907
▁campus	-5908
▁1962	-5909
ushing	-5910
▁acts	-5911
▁bask	-5912
hr	-5913
emies	-5914
▁extremely	-5915
ira	-5916
rell	-5917
ora	-5918
▁98	-5919
▁entitled	-5920
▁secure	-5921
izations	-5922
▁alle	-5923
▁Ari	-5924
▁finding	-5925
▁Bos	-5926
lee	-5927
▁decade	-5928
▁online	-5929
▁81	-5930
▁ty	-5931
▁Well	-5932
▁winner	-5933
poration	-5934
iversary	-5935
▁Theatre	-5936
idden	-5937
eless	-5938
▁evening	-5939
inois	-5940
▁71	-5941
▁investigation	-5942
▁1938	-5943
▁threatened	-5944
▁bought	-5945
▁message	-5946
▁adapted	-5947
▁survived	-5948
▁uns	-5949
▁knots	-5950
▁somew	-5951
▁Staff	-5952
va	-5953
▁studied	-5954
ella	-5955
▁proposal	-5956
▁tal	-5957
▁writes	-5958
▁Univers	-5959
▁address	-5960
▁arc	-5961
ender	-5962
▁deaths	-5963
▁Justice	-5964
▁consum	-5965
▁Here	-5966
▁ruled	-5967
▁routes	-5968
▁regiment	-5969
▁download	-5970
ashed	-5971
▁Instead	-5972
▁Prof	-5973
▁wars	-5974
▁relief	-5975
▁Constant	-5976
▁fear	-5977
▁males	-5978
▁reduce	-5979
icks	-5980
▁religion	-5981
▁voted	-5982
▁Bir	-5983
ieval	-5984
▁specifically	-5985
▁Band	-5986
▁spons	-5987
▁revolution	-5988
ropol	-5989
▁duty	-5990
▁crown	-5991
▁phase	-5992
iro	-5993
phoon	-5994
▁kingdom	-5995
▁recalled	-5996
▁89	-5997
▁portrayed	-5998
▁Age	-5999
ansas	-6000
▁fict	-6001
▁Jan	-6002
▁Kim	-6003
▁soul	-6004
▁implement	-6005
▁controversy	-6006
rec	-6007
iques	-6008
ighters	-6009
▁emerg	-6010
▁causes	-6011
▁Memorial	-6012
ctions	-6013
▁everything	-6014
▁breeding	-6015
▁Tony	-6016
▁references	-6017
▁1956	-6018
▁stret	-6019
ervative	-6020
▁sell	-6021
▁ago	-6022
▁capable	-6023
▁Anth	-6024
▁convin	-6025
▁bottom	-6026
▁importance	-6027
▁teacher	-6028
aka	-6029
▁175	-6030
▁meters	-6031
▁Singles	-6032
▁Nic	-6033
▁offers	-6034
bourne	-6035
▁entry	-6036
▁ble	-6037
▁tanks	-6038
senal	-6039
ician	-6040
▁sufficient	-6041
▁130	-6042
aints	-6043
▁owner	-6044
▁arrested	-6045
aked	-6046
▁opera	-6047
▁Director	-6048
▁Cop	-6049
▁admitted	-6050
▁Circ	-6051
▁Adams	-6052
entially	-6053
▁ec	-6054
▁Bon	-6055
▁internal	-6056
▁nomination	-6057
acter	-6058
▁corner	-6059
▁88	-6060
BN	-6061
▁et	-6062
▁Nel	-6063
▁Vill	-6064
▁crossed	-6065
chers	-6066
▁products	-6067
▁1936	-6068
▁Alan	-6069
▁climb	-6070
▁Critical	-6071
▁equipped	-6072
▁Dougl	-6073
▁installed	-6074
▁Kong	-6075
▁concerns	-6076
anean	-6077
▁overse	-6078
▁IGN	-6079
▁Hamilton	-6080
▁Jord	-6081
▁preced	-6082
▁invited	-6083
▁Power	-6084
▁Engine	-6085
▁convoy	-6086
▁interested	-6087
▁ones	-6088
▁starts	-6089
▁Beach	-6090
▁principal	-6091
▁Jane	-6092
▁crime	-6093
adow	-6094
wich	-6095
▁recommended	-6096
lan	-6097
▁conqu	-6098
▁Maria	-6099
▁Simon	-6100
▁remainder	-6101
▁McK	-6102
▁79	-6103
▁medal	-6104
▁actual	-6105
▁Your	-6106
▁UTC	-6107
▁Moon	-6108
▁mort	-6109
▁Kennedy	-6110
▁retreat	-6111
▁shut	-6112
▁tell	-6113
▁autom	-6114
ructure	-6115
espread	-6116
▁acid	-6117
▁charged	-6118
▁Plot	-6119
▁Coll	-6120
▁bor	-6121
▁objects	-6122
▁apart	-6123
▁funds	-6124
▁price	-6125
BS	-6126
▁composer	-6127
▁1961	-6128
▁solid	-6129
▁door	-6130
▁Forest	-6131
hat	-6132
▁AC	-6133
▁consisting	-6134
▁females	-6135
aug	-6136
▁promote	-6137
▁alt	-6138
▁unl	-6139
▁Adam	-6140
▁stock	-6141
▁VII	-6142
▁fly	-6143
▁Gram	-6144
▁page	-6145
▁Alf	-6146
▁considerable	-6147
▁vent	-6148
▁dates	-6149
ilation	-6150
▁Video	-6151
▁milit	-6152
▁NBA	-6153
ela	-6154
▁Indones	-6155
▁nest	-6156
▁snow	-6157
▁Found	-6158
▁Ve	-6159
entions	-6160
▁typical	-6161
▁1953	-6162
met	-6163
▁Id	-6164
▁Cart	-6165
▁Death	-6166
▁Nether	-6167
▁grounds	-6168
▁Today	-6169
ko	-6170
▁duties	-6171
▁extension	-6172
erted	-6173
▁integr	-6174
▁correct	-6175
▁gall	-6176
▁someone	-6177
▁Prog	-6178
▁evolution	-6179
▁Military	-6180
▁rural	-6181
ali	-6182
▁Eric	-6183
▁penal	-6184
▁Sunday	-6185
▁Indiana	-6186
▁eighth	-6187
▁Transport	-6188
▁hotel	-6189
vements	-6190
▁Howard	-6191
▁decades	-6192
▁92	-6193
▁images	-6194
▁blow	-6195
▁driving	-6196
▁reading	-6197
rete	-6198
▁Project	-6199
▁zone	-6200
▁Scully	-6201
▁identity	-6202
▁Norwe	-6203
▁Ast	-6204
▁occurs	-6205
▁Ok	-6206
▁sole	-6207
after	-6208
osite	-6209
▁manner	-6210
▁challenge	-6211
▁lane	-6212
▁skin	-6213
▁remix	-6214
▁aspects	-6215
▁permanent	-6216
▁Hitler	-6217
▁brigade	-6218
ati	-6219
▁Od	-6220
▁1947	-6221
bro	-6222
▁ham	-6223
▁dated	-6224
upt	-6225
▁spin	-6226
▁1958	-6227
▁volcan	-6228
▁Five	-6229
▁frag	-6230
▁Leon	-6231
▁noting	-6232
▁subs	-6233
▁Portug	-6234
▁restaur	-6235
▁supporters	-6236
▁slowly	-6237
▁84	-6238
▁Hou	-6239
▁posted	-6240
▁WWE	-6241
hetic	-6242
▁clean	-6243
▁colour	-6244
▁1910	-6245
wick	-6246
▁describing	-6247
ensus	-6248
▁1957	-6249
▁Research	-6250
▁Marc	-6251
▁involving	-6252
▁Cult	-6253
veland	-6254
osaurus	-6255
▁entering	-6256
cknow	-6257
ivals	-6258
▁speak	-6259
▁Science	-6260
▁vessels	-6261
▁enemies	-6262
▁1937	-6263
▁equivalent	-6264
arp	-6265
▁Sav	-6266
▁dress	-6267
▁classes	-6268
▁Assembly	-6269
▁Ryan	-6270
aware	-6271
▁Pear	-6272
▁debate	-6273
▁settled	-6274
▁Gun	-6275
▁Rose	-6276
▁obtained	-6277
▁department	-6278
▁93	-6279
▁Bry	-6280
▁accur	-6281
▁aer	-6282
iley	-6283
▁Constitution	-6284
▁Turk	-6285
▁armor	-6286
▁Magazine	-6287
▁parliament	-6288
▁Gen	-6289
▁basic	-6290
risis	-6291
▁Rolling	-6292
▁purchase	-6293
▁songwrit	-6294
regon	-6295
▁Mountain	-6296
▁110	-6297
BI	-6298
agues	-6299
▁oldest	-6300
▁Pit	-6301
▁Gill	-6302
▁Argent	-6303
▁Bol	-6304
▁Cleveland	-6305
▁faith	-6306
▁departure	-6307
▁din	-6308
▁concerned	-6309
▁widespread	-6310
erto	-6311
▁income	-6312
▁decline	-6313
▁pup	-6314
bar	-6315
▁formal	-6316
▁attached	-6317
▁connection	-6318
▁Illinois	-6319
▁Hug	-6320
iterr	-6321
▁Space	-6322
▁recognition	-6323
▁folk	-6324
▁certified	-6325
▁Throughout	-6326
▁accused	-6327
▁Douglas	-6328
iller	-6329
▁Lenn	-6330
heastern	-6331
▁memorial	-6332
▁outer	-6333
▁Weekly	-6334
▁sequel	-6335
hus	-6336
▁derived	-6337
cation	-6338
▁mode	-6339
▁deleg	-6340
orney	-6341
▁Rele	-6342
▁Andy	-6343
hered	-6344
▁wearing	-6345
▁decor	-6346
▁assumed	-6347
▁1959	-6348
▁Jordan	-6349
▁swim	-6350
▁disturb	-6351
▁tele	-6352
▁Oregon	-6353
▁”	-6354
▁Stanley	-6355
▁acclaim	-6356
▁acknow	-6357
▁hip	-6358
▁committed	-6359
western	-6360
▁hosted	-6361
▁Arsenal	-6362
ommod	-6363
▁Pier	-6364
▁Third	-6365
▁returns	-6366
▁Now	-6367
▁warm	-6368
▁Stand	-6369
▁valley	-6370
ubb	-6371
▁sessions	-6372
▁torn	-6373
▁populations	-6374
ekend	-6375
▁Disc	-6376
▁foss	-6377
▁denied	-6378
▁Roger	-6379
agonist	-6380
▁Freder	-6381
▁Recording	-6382
▁fine	-6383
▁segment	-6384
▁Treat	-6385
iterranean	-6386
aki	-6387
▁Feder	-6388
▁champion	-6389
▁temple	-6390
▁Beatles	-6391
▁Media	-6392
▁Family	-6393
▁charges	-6394
▁literary	-6395
▁Kevin	-6396
nic	-6397
icit	-6398
▁Norwegian	-6399
▁thousands	-6400
▁Bruce	-6401
▁Philip	-6402
▁terminus	-6403
▁1954	-6404
▁1955	-6405
▁transition	-6406
▁Mediterranean	-6407
▁flo	-6408
idges	-6409
▁supposed	-6410
▁regional	-6411
▁cong	-6412
▁86	-6413
iously	-6414
▁Bristol	-6415
▁wickets	-6416
▁“	-6417
alog	-6418
aret	-6419
ione	-6420
ooth	-6421
▁canc	-6422
▁demand	-6423
▁Tenn	-6424
reck	-6425
▁Kat	-6426
▁ISBN	-6427
▁shots	-6428
▁strongly	-6429
aired	-6430
▁Ira	-6431
▁Low	-6432
▁Sky	-6433
▁circulation	-6434
▁hang	-6435
▁intelligence	-6436
hedral	-6437
▁sailed	-6438
▁possibility	-6439
udden	-6440
▁passengers	-6441
achel	-6442
▁hope	-6443
▁animated	-6444
▁generation	-6445
heme	-6446
▁circum	-6447
▁thirty	-6448
▁freedom	-6449
▁fictional	-6450
▁commit	-6451
▁downtown	-6452
▁Federal	-6453
▁answ	-6454
ophy	-6455
fl	-6456
emed	-6457
▁behavior	-6458
▁Channel	-6459
▁minister	-6460
▁Mexican	-6461
▁×	-6462
▁hill	-6463
▁rich	-6464
▁replacement	-6465
oz	-6466
▁Rain	-6467
▁begun	-6468
▁commanded	-6469
▁assistance	-6470
eing	-6471
▁moves	-6472
▁destruction	-6473
▁cloud	-6474
▁poly	-6475
▁missed	-6476
▁missions	-6477
▁costs	-6478
▁criminal	-6479
▁exception	-6480
ras	-6481
atinum	-6482
▁brain	-6483
▁fruit	-6484
▁bringing	-6485
▁highlight	-6486
▁Bush	-6487
▁tied	-6488
rations	-6489
▁crash	-6490
▁Within	-6491
▁Korea	-6492
▁intention	-6493
ker	-6494
▁Tar	-6495
▁feeling	-6496
ategy	-6497
▁speaking	-6498
mes	-6499
▁protest	-6500
▁Lisa	-6501
▁Additionally	-6502
▁alleged	-6503
▁unusual	-6504
▁finishing	-6505
▁intercept	-6506
▁Fame	-6507
▁Master	-6508
▁properties	-6509
▁incorporated	-6510
oh	-6511
rophy	-6512
▁demol	-6513
▁stayed	-6514
▁opposite	-6515
▁attributed	-6516
▁volunte	-6517
▁recovered	-6518
▁emerged	-6519
▁breaking	-6520
▁Dig	-6521
▁serves	-6522
uro	-6523
▁sons	-6524
▁1952	-6525
▁atmosphere	-6526
▁USA	-6527
elsh	-6528
onto	-6529
▁Row	-6530
ige	-6531
▁Web	-6532
aire	-6533
organ	-6534
▁shop	-6535
▁Morris	-6536
▁theatre	-6537
▁occasionally	-6538
▁Color	-6539
▁chorus	-6540
▁driven	-6541
▁Norman	-6542
▁Phill	-6543
othing	-6544
▁Scient	-6545
▁Conc	-6546
▁strateg	-6547
▁Robinson	-6548
oral	-6549
borne	-6550
▁ready	-6551
▁classic	-6552
iva	-6553
▁regularly	-6554
▁effectively	-6555
▁dipl	-6556
▁cavalry	-6557
▁dang	-6558
▁Prior	-6559
▁establishment	-6560
▁prey	-6561
▁courts	-6562
▁spok	-6563
▁methods	-6564
olec	-6565
riers	-6566
▁sounds	-6567
▁vary	-6568
▁1933	-6569
▁Similar	-6570
▁Television	-6571
▁Int	-6572
▁Hawai	-6573
pective	-6574
▁Around	-6575
▁Unlike	-6576
▁materials	-6577
▁completion	-6578
▁176	-6579
▁Dal	-6580
▁Construction	-6581
▁shore	-6582
▁Morgan	-6583
▁superv	-6584
▁divers	-6585
▁responsibility	-6586
enses	-6587
▁dream	-6588
▁dissip	-6589
wan	-6590
▁warning	-6591
▁attracted	-6592
▁surviving	-6593
▁fields	-6594
▁accommod	-6595
▁persu	-6596
▁province	-6597
▁heat	-6598
▁Nelson	-6599
▁entertain	-6600
▁Az	-6601
▁global	-6602
▁classified	-6603
▁Premier	-6604
▁differences	-6605
oslav	-6606
▁Francis	-6607
▁divisions	-6608
▁technical	-6609
▁Sweden	-6610
▁83	-6611
▁interpret	-6612
▁Bah	-6613
▁Iron	-6614
▁1935	-6615
thm	-6616
ompl	-6617
sole	-6618
▁tom	-6619
lets	-6620
nold	-6621
▁Finn	-6622
▁Patrick	-6623
▁cruiser	-6624
▁passage	-6625
▁quant	-6626
isms	-6627
▁PA	-6628
abled	-6629
▁aboard	-6630
▁Ford	-6631
▁Lanc	-6632
▁clubs	-6633
▁stood	-6634
▁ratings	-6635
pet	-6636
▁neither	-6637
▁association	-6638
▁eleven	-6639
▁musicians	-6640
▁rooms	-6641
▁Nich	-6642
▁Budd	-6643
▁Cas	-6644
aza	-6645
▁reinforce	-6646
▁1951	-6647
▁none	-6648
ece	-6649
oyd	-6650
▁1949	-6651
▁Temple	-6652
▁desire	-6653
abb	-6654
▁check	-6655
▁Toronto	-6656
▁separated	-6657
▁Pur	-6658
▁climate	-6659
▁Ow	-6660
ja	-6661
▁Ho	-6662
▁shif	-6663
▁Welsh	-6664
▁outbreak	-6665
uty	-6666
nings	-6667
▁classification	-6668
nce	-6669
▁Nations	-6670
weight	-6671
▁vehicle	-6672
▁medic	-6673
▁ancest	-6674
▁seemed	-6675
▁Byzantine	-6676
inton	-6677
▁reality	-6678
▁predecess	-6679
umin	-6680
▁Anne	-6681
▁Techn	-6682
▁Anton	-6683
▁votes	-6684
▁picture	-6685
▁chemical	-6686
▁battleships	-6687
▁memory	-6688
▁CE	-6689
teenth	-6690
▁Allen	-6691
▁hoped	-6692
▁movements	-6693
▁requested	-6694
isf	-6695
ez	-6696
▁Profess	-6697
char	-6698
▁raise	-6699
▁historians	-6700
▁Netherlands	-6701
oli	-6702
▁Journal	-6703
▁Matthew	-6704
omot	-6705
▁Every	-6706
▁rose	-6707
▁difficulty	-6708
▁basketball	-6709
pper	-6710
▁Mit	-6711
agle	-6712
▁Ak	-6713
ewhere	-6714
▁communities	-6715
▁restored	-6716
▁sam	-6717
▁ille	-6718
▁expect	-6719
▁mo	-6720
▁remember	-6721
▁programme	-6722
▁Dog	-6723
▁nav	-6724
▁Jews	-6725
▁teen	-6726
▁Dean	-6727
▁premiere	-6728
▁delayed	-6729
burn	-6730
▁pure	-6731
▁relative	-6732
▁discovery	-6733
▁Nar	-6734
▁DE	-6735
▁kid	-6736
▁inspiration	-6737
▁Open	-6738
▁greatly	-6739
▁otherwise	-6740
▁squ	-6741
pping	-6742
▁anniversary	-6743
▁vide	-6744
▁injuries	-6745
RA	-6746
▁USS	-6747
▁Hell	-6748
▁Again	-6749
▁accounts	-6750
▁neighbor	-6751
▁obl	-6752
▁Design	-6753
▁Jacob	-6754
▁funding	-6755
▁surrounded	-6756
▁flank	-6757
▁spoke	-6758
▁praise	-6759
▁Pow	-6760
▁penalty	-6761
▁needs	-6762
▁batting	-6763
▁depict	-6764
▁fal	-6765
▁Iraq	-6766
▁1900	-6767
▁Whe	-6768
▁partner	-6769
▁massive	-6770
▁Der	-6771
▁weapon	-6772
▁claiming	-6773
▁die	-6774
▁dens	-6775
anny	-6776
▁Thomp	-6777
▁crop	-6778
▁Ba	-6779
▁suit	-6780
▁Cab	-6781
▁tries	-6782
▁Sax	-6783
▁forming	-6784
▁strategy	-6785
ami	-6786
▁Bishop	-6787
▁Marine	-6788
▁assemb	-6789
▁Es	-6790
osh	-6791
▁wrong	-6792
▁astron	-6793
▁ru	-6794
▁Domin	-6795
▁legend	-6796
▁documentary	-6797
AT	-6798
▁accompl	-6799
▁crosses	-6800
▁fled	-6801
▁worst	-6802
▁Raj	-6803
▁Croatian	-6804
ici	-6805
yard	-6806
▁stands	-6807
don	-6808
▁Thompson	-6809
▁Marg	-6810
▁temporary	-6811
▁architecture	-6812
ban	-6813
▁girls	-6814
▁Sports	-6815
▁determine	-6816
abil	-6817
▁tra	-6818
ca	-6819
gets	-6820
▁dismissed	-6821
irt	-6822
▁gal	-6823
▁involvement	-6824
▁Armen	-6825
▁Russell	-6826
uble	-6827
uther	-6828
▁recru	-6829
▁bombard	-6830
▁sale	-6831
▁category	-6832
ester	-6833
▁plane	-6834
formula	-6835
▁Last	-6836
▁remn	-6837
real	-6838
▁Glob	-6839
▁Centre	-6840
▁inner	-6841
▁adaptation	-6842
▁ensure	-6843
▁convinced	-6844
▁Dick	-6845
▁weekend	-6846
▁NFL	-6847
▁Oak	-6848
▁Islam	-6849
▁Puerto	-6850
▁hear	-6851
▁sight	-6852
▁ash	-6853
▁lat	-6854
inder	-6855
▁Heart	-6856
▁somewhat	-6857
▁resources	-6858
▁Holy	-6859
▁interests	-6860
going	-6861
▁reserv	-6862
▁rot	-6863
▁Kelly	-6864
▁Carter	-6865
▁ha	-6866
▁scheme	-6867
▁medieval	-6868
▁immediate	-6869
▁displ	-6870
▁shr	-6871
▁library	-6872
▁streets	-6873
▁presidential	-6874
oster	-6875
▁absor	-6876
▁Hop	-6877
▁cul	-6878
▁consp	-6879
▁Rick	-6880
▁Trib	-6881
▁falling	-6882
▁ray	-6883
▁Along	-6884
▁Cooper	-6885
▁carbon	-6886
▁colonial	-6887
agre	-6888
▁Modern	-6889
▁techniques	-6890
▁ninth	-6891
▁fighter	-6892
▁throne	-6893
▁Niel	-6894
▁starred	-6895
onds	-6896
▁eggs	-6897
▁scrap	-6898
▁appropri	-6899
▁classical	-6900
▁Brother	-6901
▁Mars	-6902
▁races	-6903
▁academic	-6904
body	-6905
▁Hend	-6906
▁adults	-6907
▁bright	-6908
▁hal	-6909
▁Network	-6910
▁commemor	-6911
▁passenger	-6912
▁ow	-6913
▁surviv	-6914
▁Hungarian	-6915
▁loyal	-6916
▁Winter	-6917
▁Front	-6918
▁ori	-6919
▁photograph	-6920
▁meets	-6921
itzer	-6922
▁lake	-6923
▁reviewer	-6924
▁Dor	-6925
▁Wright	-6926
▁premiered	-6927
▁submarine	-6928
▁1913	-6929
▁Ele	-6930
▁absence	-6931
▁Thus	-6932
▁seeing	-6933
▁Sn	-6934
icide	-6935
▁Batman	-6936
▁fitted	-6937
▁else	-6938
edding	-6939
▁renew	-6940
▁superior	-6941
▁Spe	-6942
wealth	-6943
▁sed	-6944
▁alien	-6945
▁favorite	-6946
▁engineer	-6947
▁interior	-6948
▁Parker	-6949
▁Free	-6950
▁Wy	-6951
osure	-6952
ronze	-6953
▁ic	-6954
night	-6955
▁partn	-6956
▁airport	-6957
▁Labor	-6958
▁deemed	-6959
▁attacking	-6960
▁Harris	-6961
▁appearing	-6962
▁visible	-6963
▁Gard	-6964
▁conclusion	-6965
ania	-6966
▁1926	-6967
▁dating	-6968
▁romantic	-6969
▁Jam	-6970
acent	-6971
▁Bang	-6972
▁synthes	-6973
▁characteristics	-6974
▁dub	-6975
▁leads	-6976
▁elections	-6977
▁operate	-6978
▁facility	-6979
▁encouraged	-6980
ran	-6981
▁1927	-6982
▁afterwards	-6983
▁retirement	-6984
▁DNA	-6985
▁landed	-6986
▁Library	-6987
▁colony	-6988
▁temperatures	-6989
▁convection	-6990
▁Murray	-6991
▁everyone	-6992
▁Pak	-6993
▁1921	-6994
ses	-6995
▁suffering	-6996
▁municip	-6997
bec	-6998
▁holds	-6999
▁credit	-7000
▁legislation	-7001
▁1934	-7002
▁lies	-7003
▁modified	-7004
▁Education	-7005
▁06	-7006
▁rum	-7007
▁painted	-7008
▁doct	-7009
▁Knight	-7010
▁controversial	-7011
using	-7012
▁Nob	-7013
▁gone	-7014
▁wings	-7015
asure	-7016
lyn	-7017
vens	-7018
▁believes	-7019
ossible	-7020
utt	-7021
▁distributed	-7022
▁Houston	-7023
▁attempting	-7024
ixon	-7025
▁code	-7026
urches	-7027
▁Police	-7028
roit	-7029
▁Late	-7030
▁looked	-7031
▁rescue	-7032
▁Commander	-7033
▁standards	-7034
▁Berlin	-7035
▁Palace	-7036
▁authors	-7037
ivan	-7038
▁Gri	-7039
▁secured	-7040
▁depicted	-7041
▁Simp	-7042
▁cancer	-7043
▁monarch	-7044
▁dominated	-7045
ogen	-7046
▁1912	-7047
▁battleship	-7048
aser	-7049
▁Advent	-7050
▁habitat	-7051
▁continuing	-7052
▁anyone	-7053
▁buy	-7054
▁pin	-7055
▁judge	-7056
▁longest	-7057
apse	-7058
arsh	-7059
scape	-7060
▁Santa	-7061
eor	-7062
coming	-7063
▁Swedish	-7064
▁biggest	-7065
▁Gh	-7066
▁unsuccessful	-7067
▁graphics	-7068
▁Commonwealth	-7069
▁grass	-7070
▁chairman	-7071
ito	-7072
rig	-7073
oen	-7074
▁archae	-7075
▁trained	-7076
▁union	-7077
▁900	-7078
▁pound	-7079
emet	-7080
▁Ut	-7081
chang	-7082
▁Story	-7083
ugoslav	-7084
▁Roberts	-7085
▁sudden	-7086
▁Simpson	-7087
▁Tok	-7088
▁wins	-7089
▁arrangement	-7090
ultane	-7091
▁carrier	-7092
anth	-7093
▁1932	-7094
▁Cry	-7095
▁neck	-7096
▁Hospital	-7097
▁railroad	-7098
encies	-7099
▁Indians	-7100
▁nickn	-7101
▁AI	-7102
▁jump	-7103
▁acknowled	-7104
▁od	-7105
igration	-7106
▁informed	-7107
▁measures	-7108
▁RAAF	-7109
eenth	-7110
▁san	-7111
rait	-7112
▁Get	-7113
▁fer	-7114
▁representing	-7115
▁map	-7116
emetery	-7117
ache	-7118
inals	-7119
apping	-7120
aska	-7121
▁Obs	-7122
▁releases	-7123
eline	-7124
▁belt	-7125
atically	-7126
▁achieve	-7127
▁Corporation	-7128
oming	-7129
▁Warner	-7130
ture	-7131
▁garrison	-7132
▁sees	-7133
▁formerly	-7134
▁Cook	-7135
▁Yugoslav	-7136
▁Jason	-7137
▁grade	-7138
▁generated	-7139
uster	-7140
▁convention	-7141
▁Ey	-7142
book	-7143
▁NBC	-7144
▁closer	-7145
▁deployed	-7146
▁styles	-7147
▁emergency	-7148
▁Anthony	-7149
▁bats	-7150
ternal	-7151
▁Silver	-7152
tenance	-7153
▁Social	-7154
▁alleg	-7155
▁questions	-7156
▁moderate	-7157
▁gets	-7158
▁trials	-7159
ón	-7160
▁Mort	-7161
▁festival	-7162
▁molec	-7163
▁siege	-7164
▁historic	-7165
▁influential	-7166
▁cycle	-7167
▁emotional	-7168
▁Est	-7169
▁Croatia	-7170
▁veter	-7171
opes	-7172
▁Yan	-7173
▁Detroit	-7174
fare	-7175
▁novels	-7176
▁owners	-7177
hire	-7178
▁Lyn	-7179
▁successor	-7180
▁influences	-7181
▁Merc	-7182
▁narrative	-7183
PA	-7184
▁FI	-7185
mun	-7186
▁Gaga	-7187
▁RAF	-7188
▁1929	-7189
po	-7190
olph	-7191
▁Bou	-7192
▁journalist	-7193
▁thin	-7194
▁Bure	-7195
▁Track	-7196
▁childhood	-7197
vis	-7198
▁1911	-7199
▁experiences	-7200
otype	-7201
▁stead	-7202
▁excess	-7203
▁eat	-7204
▁Author	-7205
▁constant	-7206
iography	-7207
▁Chamber	-7208
▁defended	-7209
▁discussed	-7210
▁legs	-7211
▁Gilbert	-7212
▁Princess	-7213
▁apparently	-7214
▁08	-7215
▁alco	-7216
▁Belg	-7217
▁pregn	-7218
owa	-7219
▁instruments	-7220
▁mathem	-7221
hess	-7222
▁assass	-7223
▁treated	-7224
▁victims	-7225
aws	-7226
▁Spears	-7227
▁environmental	-7228
▁veget	-7229
▁giant	-7230
▁executed	-7231
▁detail	-7232
▁coins	-7233
ji	-7234
tic	-7235
▁1931	-7236
yo	-7237
▁Cru	-7238
▁Asian	-7239
▁diplom	-7240
▁1922	-7241
▁ster	-7242
▁offices	-7243
fire	-7244
▁140	-7245
▁factors	-7246
▁Jesus	-7247
har	-7248
arked	-7249
▁depos	-7250
▁mine	-7251
imore	-7252
▁enters	-7253
▁hunting	-7254
▁wooden	-7255
▁concur	-7256
▁Melbourne	-7257
▁bear	-7258
▁Somers	-7259
▁Nielsen	-7260
achment	-7261
noon	-7262
▁Evans	-7263
▁Pope	-7264
▁maint	-7265
▁hundreds	-7266
aft	-7267
usted	-7268
▁Hin	-7269
▁resigned	-7270
▁Vice	-7271
▁ride	-7272
▁Ult	-7273
▁Clinton	-7274
▁Xbox	-7275
▁skills	-7276
▁Desc	-7277
▁channel	-7278
▁reveals	-7279
▁uniform	-7280
aste	-7281
▁gay	-7282
▁ocean	-7283
▁Nevertheless	-7284
▁09	-7285
▁chapter	-7286
▁pointed	-7287
▁Category	-7288
▁bab	-7289
▁ridge	-7290
▁spend	-7291
▁watching	-7292
▁Guy	-7293
▁prevented	-7294
stances	-7295
iliar	-7296
▁clim	-7297
▁Stewart	-7298
▁preferred	-7299
▁Muslim	-7300
▁PC	-7301
▁pushed	-7302
▁Atlant	-7303
agu	-7304
▁format	-7305
▁Li	-7306
▁footage	-7307
▁locomot	-7308
▁languages	-7309
▁happened	-7310
▁opponents	-7311
▁difference	-7312
▁flew	-7313
▁drums	-7314
▁formally	-7315
▁thereafter	-7316
▁reportedly	-7317
▁Heavy	-7318
▁facing	-7319
▁relationships	-7320
▁Tower	-7321
▁resign	-7322
▁intense	-7323
▁thousand	-7324
▁Samuel	-7325
▁handed	-7326
▁Turkish	-7327
▁device	-7328
▁Origin	-7329
▁notably	-7330
▁pull	-7331
▁Carib	-7332
▁Express	-7333
▁animation	-7334
icians	-7335
ogether	-7336
▁firing	-7337
rees	-7338
▁Wing	-7339
▁chain	-7340
▁Lennon	-7341
▁inhabit	-7342
▁existed	-7343
▁visitors	-7344
tty	-7345
▁vision	-7346
text	-7347
▁Sarah	-7348
▁gather	-7349
▁surrender	-7350
▁employees	-7351
▁Greece	-7352
▁Baltimore	-7353
▁Real	-7354
ais	-7355
▁accompany	-7356
orous	-7357
▁Austria	-7358
▁bon	-7359
▁Albums	-7360
una	-7361
▁linked	-7362
▁departed	-7363
▁boil	-7364
▁exposed	-7365
▁hearing	-7366
▁participate	-7367
▁Queens	-7368
▁poetry	-7369
20	-7370
▁Tal	-7371
▁dialogue	-7372
▁Benn	-7373
onies	-7374
▁Bird	-7375
▁extent	-7376
ching	-7377
bean	-7378
▁announce	-7379
▁detailed	-7380
▁170	-7381
spec	-7382
▁substantial	-7383
▁Colorado	-7384
▁learning	-7385
usic	-7386
▁audio	-7387
▁Organ	-7388
▁instance	-7389
▁universe	-7390
▁rebell	-7391
▁Lev	-7392
▁cruisers	-7393
▁residential	-7394
▁Lane	-7395
▁beach	-7396
▁Writing	-7397
▁impressed	-7398
rum	-7399
ropolitan	-7400
▁Edd	-7401
▁bes	-7402
resent	-7403
▁periods	-7404
▁Initially	-7405
▁Hans	-7406
▁Rey	-7407
▁Marshall	-7408
endment	-7409
prise	-7410
▁huge	-7411
▁Foundation	-7412
iens	-7413
orage	-7414
▁publisher	-7415
▁Malays	-7416
uts	-7417
hatt	-7418
ullivan	-7419
▁taught	-7420
raph	-7421
▁easy	-7422
▁plate	-7423
▁Dave	-7424
▁enthus	-7425
▁afternoon	-7426
▁util	-7427
▁fil	-7428
stic	-7429
▁Stock	-7430
▁Frederick	-7431
▁territories	-7432
▁driver	-7433
▁stem	-7434
▁Chronic	-7435
▁testing	-7436
lie	-7437
▁videos	-7438
▁imprison	-7439
▁reviewers	-7440
▁Ark	-7441
▁05	-7442
boy	-7443
▁happy	-7444
phy	-7445
▁1928	-7446
▁Wrestling	-7447
ois	-7448
rant	-7449
▁tests	-7450
▁Having	-7451
iami	-7452
▁Aud	-7453
▁hat	-7454
▁upd	-7455
▁tempor	-7456
▁Raw	-7457
itter	-7458
▁understand	-7459
▁Banks	-7460
▁teeth	-7461
▁isolated	-7462
▁sky	-7463
DS	-7464
unes	-7465
▁ske	-7466
▁stable	-7467
▁negotiations	-7468
▁x	-7469
mad	-7470
ribed	-7471
▁vessel	-7472
▁Somerset	-7473
▁feud	-7474
▁diameter	-7475
▁inher	-7476
▁sympt	-7477
▁agents	-7478
▁reprodu	-7479
▁Ern	-7480
▁vul	-7481
▁picked	-7482
▁Horse	-7483
▁Bed	-7484
▁Horn	-7485
▁mart	-7486
▁Anna	-7487
▁Mario	-7488
▁encountered	-7489
▁1925	-7490
▁goods	-7491
▁bridges	-7492
▁dangerous	-7493
elle	-7494
▁factor	-7495
▁Mun	-7496
▁Release	-7497
▁sleep	-7498
▁withdrew	-7499
▁Lim	-7500
▁Sym	-7501
▁diagn	-7502
▁teamm	-7503
▁junior	-7504
▁simultane	-7505
▁aged	-7506
▁founder	-7507
▁consol	-7508
raf	-7509
▁Cz	-7510
▁Jess	-7511
▁normally	-7512
▁upgraded	-7513
▁reun	-7514
▁Anglo	-7515
▁Giants	-7516
▁Know	-7517
▁keeping	-7518
▁Miami	-7519
▁behavi	-7520
▁specimens	-7521
orial	-7522
ican	-7523
▁1890	-7524
▁pounds	-7525
▁Seattle	-7526
ogan	-7527
ds	-7528
▁medium	-7529
▁satell	-7530
▁window	-7531
icop	-7532
roke	-7533
▁lob	-7534
▁frequent	-7535
▁1924	-7536
▁sure	-7537
▁relie	-7538
▁partly	-7539
▁tie	-7540
▁collaps	-7541
etime	-7542
▁lowest	-7543
▁ethnic	-7544
oto	-7545
▁crisis	-7546
▁Championships	-7547
▁resear	-7548
▁engineering	-7549
▁toll	-7550
▁Player	-7551
▁prohib	-7552
▁Soon	-7553
▁apprec	-7554
▁traveled	-7555
▁Ot	-7556
▁whereas	-7557
▁organizations	-7558
▁proced	-7559
▁rarely	-7560
▁designer	-7561
▁lose	-7562
▁refers	-7563
sea	-7564
amese	-7565
▁diet	-7566
▁doesn	-7567
▁turrets	-7568
uv	-7569
▁tone	-7570
▁technique	-7571
▁Treaty	-7572
▁Iowa	-7573
▁outf	-7574
▁deter	-7575
▁mir	-7576
▁spending	-7577
▁finale	-7578
▁criticised	-7579
▁Alab	-7580
▁Ts	-7581
▁Trek	-7582
▁vice	-7583
▁advice	-7584
▁permission	-7585
▁vic	-7586
▁maintenance	-7587
usal	-7588
▁insc	-7589
mission	-7590
▁Ra	-7591
otes	-7592
▁platinum	-7593
▁uncertain	-7594
▁difficulties	-7595
▁Buck	-7596
borough	-7597
▁underw	-7598
▁policies	-7599
▁partially	-7600
▁Alabama	-7601
▁bypass	-7602
▁restric	-7603
zy	-7604
▁Human	-7605
▁agree	-7606
▁verse	-7607
▁fur	-7608
▁Forces	-7609
▁compete	-7610
▁complic	-7611
▁mainstream	-7612
▁indicate	-7613
iece	-7614
▁ranking	-7615
▁personality	-7616
lock	-7617
▁ca	-7618
▁recordings	-7619
alo	-7620
iy	-7621
uscript	-7622
▁Caribbean	-7623
olas	-7624
ennis	-7625
▁excell	-7626
▁comments	-7627
▁proport	-7628
igen	-7629
inction	-7630
▁remove	-7631
▁ax	-7632
helm	-7633
▁liqu	-7634
▁finals	-7635
▁refuge	-7636
▁anticip	-7637
ologists	-7638
▁Mississ	-7639
▁Lawrence	-7640
▁concerts	-7641
▁safe	-7642
▁Napole	-7643
▁chronic	-7644
igs	-7645
ygen	-7646
▁seats	-7647
▁windows	-7648
ilst	-7649
gery	-7650
▁unn	-7651
▁1923	-7652
▁Yanke	-7653
▁Charlie	-7654
kes	-7655
▁ML	-7656
oked	-7657
urance	-7658
▁restrict	-7659
▁falls	-7660
▁extreme	-7661
▁rates	-7662
attered	-7663
▁recommend	-7664
▁strip	-7665
▁fighters	-7666
▁honour	-7667
▁pitched	-7668
▁Minnes	-7669
▁repair	-7670
▁Then	-7671
▁covers	-7672
aria	-7673
▁Ext	-7674
▁recur	-7675
▁representative	-7676
▁Canal	-7677
▁symp	-7678
▁divor	-7679
▁Senator	-7680
▁jur	-7681
▁Crown	-7682
▁moral	-7683
▁monument	-7684
▁mamm	-7685
▁alter	-7686
▁tenth	-7687
xual	-7688
▁truth	-7689
▁prompted	-7690
▁phen	-7691
▁phr	-7692
▁forcing	-7693
▁describe	-7694
▁brand	-7695
away	-7696
▁Bros	-7697
▁Buff	-7698
▁hockey	-7699
▁tot	-7700
▁Sab	-7701
▁Ministry	-7702
▁destroyers	-7703
chell	-7704
▁minimum	-7705
▁Ian	-7706
▁shear	-7707
▁reconst	-7708
roc	-7709
▁Township	-7710
▁Garden	-7711
▁churches	-7712
▁neighborhood	-7713
▁diff	-7714
▁friendly	-7715
▁Cre	-7716
▁boys	-7717
▁hull	-7718
▁overs	-7719
▁Grammy	-7720
▁examples	-7721
▁bases	-7722
▁Hungary	-7723
▁drawing	-7724
▁Nazi	-7725
power	-7726
▁travelled	-7727
iac	-7728
▁Hand	-7729
▁Country	-7730
▁bombers	-7731
▁pric	-7732
▁tub	-7733
▁doctor	-7734
▁McD	-7735
▁dynasty	-7736
▁Call	-7737
▁adjacent	-7738
MA	-7739
▁inaug	-7740
▁housing	-7741
▁approval	-7742
▁Health	-7743
▁displayed	-7744
▁Benj	-7745
isd	-7746
▁07	-7747
▁Return	-7748
▁Australians	-7749
anium	-7750
▁Belgium	-7751
▁credits	-7752
▁Fran	-7753
▁Dance	-7754
▁creator	-7755
icy	-7756
▁USD	-7757
▁Hamp	-7758
▁Christopher	-7759
gro	-7760
▁Diego	-7761
▁grown	-7762
▁joining	-7763
▁listing	-7764
▁tribute	-7765
▁collapse	-7766
▁partnership	-7767
aya	-7768
▁Blood	-7769
▁protagonist	-7770
▁Polit	-7771
▁Medal	-7772
▁Shakesp	-7773
rain	-7774
▁Event	-7775
▁moments	-7776
▁acted	-7777
▁changing	-7778
▁*	-7779
gas	-7780
▁creative	-7781
▁designation	-7782
▁explo	-7783
▁copy	-7784
▁powered	-7785
FC	-7786
alions	-7787
ugby	-7788
olis	-7789
▁asks	-7790
▁Children	-7791
▁fung	-7792
onnaissance	-7793
▁refere	-7794
▁turb	-7795
▁radar	-7796
▁trend	-7797
▁Cold	-7798
▁storms	-7799
▁villages	-7800
▁instrumental	-7801
jo	-7802
▁appointment	-7803
▁arts	-7804
▁dollars	-7805
▁orb	-7806
▁1905	-7807
▁Much	-7808
▁treaty	-7809
▁advis	-7810
▁possession	-7811
▁scientists	-7812
▁1908	-7813
ls	-7814
velt	-7815
▁canal	-7816
▁CR	-7817
▁Roc	-7818
▁rounds	-7819
▁Op	-7820
▁survive	-7821
▁victories	-7822
▁Guardian	-7823
▁paintings	-7824
▁eliminated	-7825
▁Nat	-7826
▁Mach	-7827
▁Legacy	-7828
▁Benjamin	-7829
▁Represent	-7830
▁covering	-7831
▁mand	-7832
▁1909	-7833
imeter	-7834
ounced	-7835
▁Roose	-7836
▁truck	-7837
▁minimal	-7838
▁ju	-7839
▁Cred	-7840
▁orbit	-7841
▁Michel	-7842
▁els	-7843
▁precip	-7844
▁telling	-7845
▁elsewhere	-7846
▁Vietnamese	-7847
▁Hockey	-7848
▁Record	-7849
▁newspapers	-7850
▁benefit	-7851
▁surprise	-7852
mers	-7853
▁Hud	-7854
▁innov	-7855
col	-7856
▁seeking	-7857
▁arriving	-7858
▁Hills	-7859
▁helping	-7860
icts	-7861
▁occupation	-7862
▁wheel	-7863
▁suicide	-7864
▁Minnesota	-7865
▁grav	-7866
▁rhythm	-7867
▁purposes	-7868
ivated	-7869
▁Laure	-7870
▁values	-7871
▁dispute	-7872
uda	-7873
otten	-7874
▁Rand	-7875
▁unlike	-7876
▁occasions	-7877
▁ped	-7878
▁Æ	-7879
ogy	-7880
▁Khan	-7881
▁Alfred	-7882
▁Dead	-7883
▁loan	-7884
▁smooth	-7885
▁DC	-7886
▁Dur	-7887
▁twin	-7888
ecraft	-7889
itud	-7890
▁pool	-7891
rupted	-7892
▁option	-7893
▁Manhatt	-7894
▁gard	-7895
active	-7896
▁manuscript	-7897
▁Manhattan	-7898
▁fishing	-7899
▁struggle	-7900
▁Interstate	-7901
▁marry	-7902
▁Walker	-7903
ES	-7904
idi	-7905
▁soil	-7906
▁brick	-7907
▁Franklin	-7908
ods	-7909
chen	-7910
▁Kurt	-7911
▁murd	-7912
▁Ll	-7913
▁Lin	-7914
▁wet	-7915
forced	-7916
▁balance	-7917
ouri	-7918
▁degrees	-7919
▁gat	-7920
▁Roosevelt	-7921
▁preserved	-7922
rim	-7923
▁schedule	-7924
bra	-7925
ographical	-7926
AC	-7927
rows	-7928
▁Administ	-7929
rad	-7930
▁Hind	-7931
sters	-7932
▁Trust	-7933
▁Perform	-7934
atus	-7935
▁1907	-7936
▁Peninsula	-7937
▁publicly	-7938
▁Ah	-7939
▁categ	-7940
▁Flight	-7941
▁cryst	-7942
atherine	-7943
▁cooper	-7944
▁violent	-7945
enh	-7946
▁resumed	-7947
▁candidates	-7948
iders	-7949
▁flash	-7950
▁emperor	-7951
▁neighbour	-7952
ée	-7953
▁pilots	-7954
▁wedding	-7955
▁competed	-7956
Ar	-7957
▁125	-7958
▁Kansas	-7959
▁survivors	-7960
munition	-7961
▁105	-7962
▁164	-7963
▁abilities	-7964
▁Industry	-7965
roid	-7966
▁Lam	-7967
▁dies	-7968
▁procl	-7969
▁neutral	-7970
overs	-7971
▁discip	-7972
▁span	-7973
▁Shel	-7974
▁beautiful	-7975
▁Mississipp	-7976
incial	-7977
▁Satur	-7978
▁intensified	-7979
30	-7980
▁impossible	-7981
entional	-7982
▁Portland	-7983
▁alignment	-7984
▁Comb	-7985
▁teaching	-7986
ishment	-7987
▁coordin	-7988
▁assisted	-7989
▁cook	-7990
▁defeating	-7991
▁Anim	-7992
▁advoc	-7993
▁argument	-7994
▁Thor	-7995
▁multi	-7996
▁wrest	-7997
▁poison	-7998
ante	-7999
▁Ban	-8000
▁custom	-8001
▁concrete	-8002
▁electronic	-8003
▁Nash	-8004
▁lists	-8005
▁consult	-8006
▁helicop	-8007
▁nations	-8008
acle	-8009
oking	-8010
▁Beck	-8011
▁grey	-8012
▁Hotel	-8013
▁MP	-8014
rome	-8015
▁Hong	-8016
▁prosp	-8017
▁Building	-8018
▁Set	-8019
▁Tun	-8020
▁rivers	-8021
▁serial	-8022
▁Fal	-8023
▁Born	-8024
▁assists	-8025
▁lem	-8026
▁absol	-8027
▁opponent	-8028
▁interesting	-8029
▁elabor	-8030
▁foundation	-8031
▁agricultural	-8032
rot	-8033
▁Aff	-8034
▁businesses	-8035
ensions	-8036
▁Digital	-8037
▁backing	-8038
▁Ice	-8039
▁suitable	-8040
▁Bull	-8041
▁Cole	-8042
▁simpl	-8043
▁1880	-8044
▁signing	-8045
▁Lith	-8046
▁overt	-8047
▁oxygen	-8048
▁tunnel	-8049
▁submitted	-8050
ilty	-8051
▁danc	-8052
▁understanding	-8053
▁Div	-8054
▁Fried	-8055
▁mines	-8056
▁fifteen	-8057
eare	-8058
▁scholar	-8059
▁encounter	-8060
obile	-8061
▁symptoms	-8062
▁165	-8063
▁Gab	-8064
▁citing	-8065
odore	-8066
▁waves	-8067
▁behalf	-8068
cop	-8069
▁sunk	-8070
itated	-8071
▁percentage	-8072
▁Shakespeare	-8073
ulating	-8074
▁Native	-8075
▁forests	-8076
▁Area	-8077
▁Halo	-8078
eu	-8079
▁AR	-8080
▁parish	-8081
▁Tenness	-8082
▁situated	-8083
▁spiritual	-8084
▁forty	-8085
▁ninet	-8086
▁signs	-8087
▁Blues	-8088
▁Rap	-8089
▁closing	-8090
▁sank	-8091
▁subjects	-8092
▁Son	-8093
▁Hindu	-8094
▁Ward	-8095
▁ammunition	-8096
▁voiced	-8097
ila	-8098
▁usual	-8099
▁Athlet	-8100
▁illness	-8101
▁Alexand	-8102
▁Campbell	-8103
▁repairs	-8104
▁Offic	-8105
onymous	-8106
▁Sullivan	-8107
▁resolution	-8108
▁01	-8109
ctic	-8110
▁Brun	-8111
rix	-8112
▁Steven	-8113
▁Hero	-8114
uman	-8115
▁asking	-8116
▁Cob	-8117
▁corpor	-8118
▁disaster	-8119
▁functions	-8120
▁Rang	-8121
▁imperial	-8122
▁attendance	-8123
▁collaboration	-8124
▁04	-8125
▁Wolf	-8126
▁assess	-8127
zz	-8128
▁Lucas	-8129
▁lieutenant	-8130
▁restaurant	-8131
▁Hu	-8132
▁Vinc	-8133
▁evil	-8134
alities	-8135
▁Egyptian	-8136
▁audiences	-8137
▁Margaret	-8138
▁controll	-8139
▁feelings	-8140
▁underground	-8141
rams	-8142
▁junction	-8143
▁Friend	-8144
▁deliber	-8145
▁worship	-8146
▁flights	-8147
▁nom	-8148
▁Kings	-8149
▁affairs	-8150
▁suspended	-8151
li	-8152
▁Stevens	-8153
▁skull	-8154
▁Si	-8155
▁Ple	-8156
father	-8157
▁Mississippi	-8158
face	-8159
▁Tennessee	-8160
▁Dw	-8161
▁exit	-8162
▁VI	-8163
▁willing	-8164
▁Race	-8165
▁Apple	-8166
▁earthqu	-8167
▁targets	-8168
▁1906	-8169
▁cargo	-8170
▁Louisiana	-8171
▁recre	-8172
▁funeral	-8173
▁affair	-8174
▁Montreal	-8175
▁Box	-8176
▁Lad	-8177
▁poorly	-8178
▁operational	-8179
▁Historic	-8180
▁1904	-8181
▁Dest	-8182
▁abol	-8183
▁measured	-8184
odge	-8185
▁documents	-8186
▁compilation	-8187
isp	-8188
iveness	-8189
▁Palest	-8190
▁Missouri	-8191
▁aimed	-8192
▁filed	-8193
▁Labour	-8194
▁mountains	-8195
▁pron	-8196
▁Warren	-8197
▁Wol	-8198
uable	-8199
▁registered	-8200
▁360	-8201
asters	-8202
▁circuit	-8203
▁1870	-8204
▁Depression	-8205
▁Philippines	-8206
sex	-8207
▁lect	-8208
▁initi	-8209
▁statue	-8210
▁string	-8211
▁favorable	-8212
▁elder	-8213
▁Tag	-8214
▁Prom	-8215
▁liked	-8216
▁Mitchell	-8217
▁anch	-8218
▁explosion	-8219
▁recognised	-8220
▁adopt	-8221
▁Harvey	-8222
▁represents	-8223
▁prol	-8224
▁professor	-8225
▁temporarily	-8226
▁Billy	-8227
▁entertainment	-8228
lah	-8229
▁sector	-8230
▁rout	-8231
ipped	-8232
▁replacing	-8233
▁sequences	-8234
rator	-8235
▁Critics	-8236
ta	-8237
aron	-8238
▁McL	-8239
▁fifty	-8240
▁jazz	-8241
amps	-8242
▁wreck	-8243
▁shells	-8244
▁offering	-8245
▁Dom	-8246
▁artwork	-8247
inea	-8248
overe	-8249
▁wore	-8250
▁Small	-8251
▁margin	-8252
▁interpre	-8253
▁residence	-8254
▁preparation	-8255
ception	-8256
▁Dragon	-8257
▁Graham	-8258
▁Independent	-8259
ateur	-8260
▁Mack	-8261
species	-8262
amic	-8263
▁reflected	-8264
ifer	-8265
weet	-8266
▁wel	-8267
▁reluct	-8268
▁alliance	-8269
▁directors	-8270
▁restoration	-8271
▁Czech	-8272
▁prime	-8273
▁expensive	-8274
▁Non	-8275
▁bot	-8276
▁cyl	-8277
orders	-8278
▁Business	-8279
▁terror	-8280
▁touring	-8281
▁overw	-8282
▁alcohol	-8283
▁amongst	-8284
▁thinking	-8285
▁completing	-8286
▁Joh	-8287
▁Kirk	-8288
▁Near	-8289
issions	-8290
▁suggesting	-8291
▁Fem	-8292
▁UE	-8293
▁py	-8294
▁banks	-8295
▁nucle	-8296
▁cancelled	-8297
ylan	-8298
ancell	-8299
artney	-8300
inental	-8301
▁horror	-8302
▁rebuilt	-8303
bishop	-8304
▁coverage	-8305
▁Nag	-8306
▁rig	-8307
atics	-8308
ques	-8309
▁Ariz	-8310
▁pulled	-8311
▁decides	-8312
▁escaped	-8313
▁Cuba	-8314
▁Seven	-8315
dale	-8316
▁wasn	-8317
▁Guide	-8318
▁amounts	-8319
rm	-8320
▁erupt	-8321
agen	-8322
▁Grey	-8323
andal	-8324
▁reven	-8325
▁dimens	-8326
▁Edge	-8327
▁lacked	-8328
idel	-8329
▁Mes	-8330
ellect	-8331
▁racing	-8332
▁tribes	-8333
SP	-8334
osm	-8335
uary	-8336
▁cous	-8337
▁dramatic	-8338
▁bay	-8339
▁subt	-8340
▁clearly	-8341
▁communication	-8342
▁Magn	-8343
▁Phoen	-8344
▁patterns	-8345
▁garden	-8346
phony	-8347
overeign	-8348
▁predomin	-8349
▁Cow	-8350
▁Files	-8351
▁familiar	-8352
▁engagement	-8353
▁argues	-8354
▁ownership	-8355
▁Ring	-8356
▁Tamil	-8357
▁Vis	-8358
▁frig	-8359
▁marks	-8360
quir	-8361
▁Arizona	-8362
▁saved	-8363
▁armored	-8364
▁ben	-8365
▁perspective	-8366
▁Mess	-8367
▁colonies	-8368
▁Indies	-8369
▁drove	-8370
▁Persian	-8371
▁Snow	-8372
▁Saturday	-8373
▁contributions	-8374
▁Sony	-8375
▁wicket	-8376
▁cod	-8377
▁Maur	-8378
▁Hem	-8379
urally	-8380
▁merchant	-8381
▁solution	-8382
▁fastest	-8383
▁tru	-8384
▁playoffs	-8385
▁Ku	-8386
▁artistic	-8387
▁administrative	-8388
▁Dylan	-8389
▁remnants	-8390
rage	-8391
▁print	-8392
ski	-8393
▁characterized	-8394
▁false	-8395
unch	-8396
▁Ren	-8397
▁rit	-8398
▁Josh	-8399
idency	-8400
eron	-8401
ieties	-8402
▁boundary	-8403
▁Scout	-8404
▁execut	-8405
▁rising	-8406
▁seed	-8407
▁severely	-8408
▁Ye	-8409
▁Marie	-8410
▁crews	-8411
▁kings	-8412
▁militia	-8413
▁institutions	-8414
TA	-8415
okes	-8416
orious	-8417
▁badly	-8418
▁armament	-8419
▁tag	-8420
▁disappoin	-8421
▁depending	-8422
▁retail	-8423
▁flagship	-8424
▁Confederate	-8425
▁obv	-8426
▁bulk	-8427
▁Bureau	-8428
▁earning	-8429
▁genetic	-8430
▁distinctive	-8431
▁bowling	-8432
▁gang	-8433
▁explains	-8434
no	-8435
▁ranks	-8436
▁recip	-8437
▁bronze	-8438
▁restricted	-8439
▁03	-8440
▁Oklah	-8441
▁fallen	-8442
▁frust	-8443
▁comparison	-8444
▁ideal	-8445
▁threw	-8446
▁notice	-8447
bl	-8448
rep	-8449
▁Lov	-8450
▁excav	-8451
▁demonstrated	-8452
orer	-8453
▁ranging	-8454
cho	-8455
▁explain	-8456
▁earn	-8457
▁condem	-8458
▁poems	-8459
▁115	-8460
▁Kal	-8461
▁Cher	-8462
▁inland	-8463
▁controls	-8464
▁inhabitants	-8465
cru	-8466
▁draf	-8467
▁arrive	-8468
▁context	-8469
nik	-8470
orph	-8471
▁riders	-8472
▁Switzer	-8473
▁Sin	-8474
storm	-8475
▁Murphy	-8476
▁practices	-8477
ectic	-8478
mented	-8479
▁Mrs	-8480
▁wants	-8481
▁sisters	-8482
▁kW	-8483
omber	-8484
uations	-8485
▁mental	-8486
▁quiet	-8487
▁satisf	-8488
▁Wilhelm	-8489
▁loop	-8490
rating	-8491
▁electron	-8492
▁Switzerland	-8493
▁conservative	-8494
exp	-8495
pan	-8496
▁wider	-8497
▁faster	-8498
▁maneu	-8499
▁shield	-8500
▁Program	-8501
▁gap	-8502
▁exclud	-8503
formation	-8504
sky	-8505
▁autob	-8506
▁surge	-8507
▁Econom	-8508
▁spotted	-8509
▁Broadway	-8510
▁revol	-8511
▁reaches	-8512
▁distinguished	-8513
uki	-8514
▁Liz	-8515
▁pace	-8516
▁174	-8517
▁plus	-8518
▁vulner	-8519
▁evolved	-8520
▁northward	-8521
equ	-8522
gate	-8523
anches	-8524
ivia	-8525
▁101	-8526
▁1901	-8527
▁Barry	-8528
▁acceler	-8529
▁meat	-8530
▁Chand	-8531
▁application	-8532
life	-8533
▁synd	-8534
itting	-8535
▁Oklahoma	-8536
▁EP	-8537
▁kit	-8538
▁exhibition	-8539
▁Austrian	-8540
▁millimet	-8541
▁quarterback	-8542
▁ABC	-8543
▁Mik	-8544
▁nominations	-8545
unc	-8546
▁agency	-8547
▁gate	-8548
▁protein	-8549
▁subspecies	-8550
▁satellite	-8551
▁Such	-8552
ocking	-8553
▁Federation	-8554
▁prepare	-8555
▁dominant	-8556
▁households	-8557
ridge	-8558
ruption	-8559
▁palace	-8560
▁predicted	-8561
▁frame	-8562
▁triple	-8563
athy	-8564
▁Amy	-8565
otton	-8566
▁Delaware	-8567
▁slaves	-8568
▁storage	-8569
▁Ped	-8570
▁Original	-8571
bre	-8572
▁1903	-8573
sequently	-8574
▁obtain	-8575
▁tex	-8576
▁1902	-8577
estone	-8578
inations	-8579
▁Lithuan	-8580
▁Tan	-8581
▁abund	-8582
▁printed	-8583
▁articles	-8584
▁attained	-8585
▁carriers	-8586
▁repeatedly	-8587
▁intellect	-8588
▁predecessor	-8589
▁fixed	-8590
▁Leslie	-8591
▁allies	-8592
oga	-8593
▁spr	-8594
▁stores	-8595
▁surgery	-8596
▁vertical	-8597
▁AA	-8598
▁vs	-8599
▁Perry	-8600
▁peaking	-8601
▁vast	-8602
▁155	-8603
▁yield	-8604
▁philosophy	-8605
▁vel	-8606
▁signal	-8607
▁strict	-8608
▁adventure	-8609
▁biographer	-8610
▁blocks	-8611
▁excellent	-8612
urer	-8613
acked	-8614
▁disagre	-8615
▁Originally	-8616
▁boss	-8617
rine	-8618
anton	-8619
azing	-8620
▁illegal	-8621
▁phenomen	-8622
asts	-8623
▁Baby	-8624
▁Harv	-8625
▁perceived	-8626
▁bombs	-8627
▁choose	-8628
▁seriously	-8629
rates	-8630
▁pretty	-8631
▁Denmark	-8632
▁remarked	-8633
▁Rico	-8634
▁Jonathan	-8635
▁westward	-8636
▁apartment	-8637
oven	-8638
agasc	-8639
▁Tokyo	-8640
▁waiting	-8641
▁Nik	-8642
▁Ridge	-8643
▁useful	-8644
▁comfort	-8645
▁Rih	-8646
▁circumstances	-8647
fe	-8648
▁Clar	-8649
▁thor	-8650
aughters	-8651
▁Players	-8652
▁curren	-8653
riptions	-8654
▁Atlanta	-8655
▁surrend	-8656
▁Baseball	-8657
ori	-8658
▁drugs	-8659
▁Rihanna	-8660
▁meetings	-8661
▁battalions	-8662
▁coinc	-8663
▁sket	-8664
▁dollar	-8665
▁tight	-8666
oned	-8667
itage	-8668
▁Nixon	-8669
▁layer	-8670
▁civilian	-8671
▁Johnny	-8672
▁readers	-8673
▁Fif	-8674
▁armour	-8675
▁whilst	-8676
ibl	-8677
acon	-8678
▁Abbey	-8679
fish	-8680
imen	-8681
▁Less	-8682
▁sick	-8683
▁phone	-8684
▁Bomb	-8685
▁Bernard	-8686
▁matters	-8687
▁institution	-8688
▁breat	-8689
▁Mother	-8690
▁casting	-8691
▁friendship	-8692
▁strengthened	-8693
▁visiting	-8694
▁gust	-8695
▁tiss	-8696
▁Territ	-8697
▁planets	-8698
▁Campaign	-8699
▁reconnaissance	-8700
pha	-8701
▁similarly	-8702
▁retain	-8703
▁chamber	-8704
▁simultaneously	-8705
icate	-8706
▁Edwards	-8707
apolis	-8708
▁legacy	-8709
▁alternate	-8710
▁Juan	-8711
▁demanded	-8712
▁typhoon	-8713
eton	-8714
mingham	-8715
rik	-8716
▁168	-8717
▁Pitts	-8718
▁Arnold	-8719
▁panel	-8720
▁justice	-8721
▁DS	-8722
▁empt	-8723
▁enlisted	-8724
rose	-8725
▁Hann	-8726
▁alive	-8727
▁Ru	-8728
▁insisted	-8729
sk	-8730
rus	-8731
▁Tel	-8732
▁Roll	-8733
▁Railroad	-8734
onomy	-8735
▁shipping	-8736
avery	-8737
▁Brig	-8738
▁horn	-8739
▁Jimmy	-8740
▁revers	-8741
arant	-8742
▁Prize	-8743
▁roots	-8744
▁revenue	-8745
▁promised	-8746
erk	-8747
▁Keith	-8748
▁bombing	-8749
▁demands	-8750
adi	-8751
estyle	-8752
▁tack	-8753
▁punk	-8754
▁possess	-8755
arth	-8756
▁lanes	-8757
▁athletes	-8758
▁personally	-8759
▁hook	-8760
▁console	-8761
▁Ral	-8762
▁drivers	-8763
▁Internet	-8764
▁struggled	-8765
▁definition	-8766
entle	-8767
▁looks	-8768
▁mainland	-8769
▁Rachel	-8770
▁portions	-8771
▁conscious	-8772
rast	-8773
▁Lex	-8774
▁pione	-8775
aration	-8776
▁orchestra	-8777
▁backed	-8778
▁audition	-8779
▁Wor	-8780
▁Chel	-8781
▁Madagasc	-8782
abs	-8783
▁Bh	-8784
▁sung	-8785
lus	-8786
▁propag	-8787
▁democr	-8788
▁continu	-8789
▁behaviour	-8790
roph	-8791
▁guilty	-8792
▁Yankees	-8793
▁guitarist	-8794
dy	-8795
▁Cra	-8796
▁diver	-8797
▁Wag	-8798
LC	-8799
▁jobs	-8800
▁Tracy	-8801
▁artific	-8802
▁marketing	-8803
TW	-8804
▁armies	-8805
▁demolished	-8806
▁Opp	-8807
inian	-8808
▁Inn	-8809
regation	-8810
▁Birmingham	-8811
▁Soul	-8812
▁dancing	-8813
▁surpass	-8814
▁starring	-8815
▁Furthermore	-8816
▁ruling	-8817
▁feels	-8818
▁Pars	-8819
▁Hur	-8820
▁factory	-8821
▁profile	-8822
▁increases	-8823
▁Eventually	-8824
acre	-8825
▁Obama	-8826
▁Nine	-8827
▁subst	-8828
uma	-8829
odox	-8830
▁McM	-8831
▁heading	-8832
▁166	-8833
▁Hugh	-8834
▁mining	-8835
▁compens	-8836
▁counties	-8837
lain	-8838
▁Shaw	-8839
▁indu	-8840
azines	-8841
▁theater	-8842
▁rub	-8843
▁Lost	-8844
▁pages	-8845
▁Pil	-8846
▁Universal	-8847
▁essential	-8848
▁Enterprise	-8849
ghan	-8850
▁Rat	-8851
▁believing	-8852
▁organisation	-8853
▁Ald	-8854
▁Canter	-8855
▁pursue	-8856
▁McCartney	-8857
▁discovers	-8858
▁bonus	-8859
▁discont	-8860
▁expression	-8861
▁02	-8862
▁Gray	-8863
▁affect	-8864
▁Phoenix	-8865
▁delivery	-8866
tery	-8867
arr	-8868
inding	-8869
▁Baker	-8870
▁multipl	-8871
▁clothing	-8872
din	-8873
▁obst	-8874
▁Hudson	-8875
▁succeed	-8876
▁ports	-8877
eland	-8878
▁Ton	-8879
▁mobile	-8880
▁Jup	-8881
▁Cost	-8882
▁Vik	-8883
▁Buddh	-8884
▁crest	-8885
▁elevation	-8886
▁Bobby	-8887
SA	-8888
▁Bach	-8889
▁Chen	-8890
▁Girls	-8891
▁patron	-8892
▁Connectic	-8893
▁Publ	-8894
▁Wayne	-8895
emen	-8896
▁109	-8897
ouver	-8898
▁Madagascar	-8899
▁acou	-8900
▁doubt	-8901
▁secretary	-8902
▁Comple	-8903
▁forecast	-8904
acc	-8905
folk	-8906
▁kiss	-8907
▁Pearl	-8908
▁drink	-8909
▁engage	-8910
▁Connecticut	-8911
▁accum	-8912
▁Impact	-8913
▁Defence	-8914
▁Fat	-8915
▁rif	-8916
▁Iran	-8917
rov	-8918
▁sq	-8919
▁cup	-8920
▁horiz	-8921
▁stick	-8922
▁altered	-8923
▁overseas	-8924
tario	-8925
▁Mans	-8926
▁Todd	-8927
▁Morrison	-8928
▁chest	-8929
py	-8930
▁Bosn	-8931
▁mayor	-8932
▁Rights	-8933
▁deterior	-8934
▁Peace	-8935
umps	-8936
▁Ontario	-8937
▁listen	-8938
▁defences	-8939
atern	-8940
▁expand	-8941
▁erected	-8942
▁baby	-8943
ultan	-8944
irty	-8945
▁renov	-8946
▁cancel	-8947
▁settlers	-8948
▁compounds	-8949
cles	-8950
▁bid	-8951
ication	-8952
▁Canterbury	-8953
inces	-8954
▁stress	-8955
▁Karl	-8956
▁Friday	-8957
▁Rub	-8958
shore	-8959
▁Stat	-8960
▁salt	-8961
▁Works	-8962
▁legislature	-8963
grad	-8964
▁musician	-8965
otyp	-8966
▁Leonard	-8967
▁objective	-8968
iph	-8969
▁Maj	-8970
▁Community	-8971
▁raising	-8972
▁highways	-8973
▁decisions	-8974
▁disl	-8975
▁aerial	-8976
warf	-8977
▁Allies	-8978
▁voy	-8979
▁aftermath	-8980
▁conversion	-8981
▁concentration	-8982
▁solar	-8983
▁campaigns	-8984
▁liquid	-8985
ensively	-8986
▁orn	-8987
▁conspir	-8988
▁sitting	-8989
▁soldier	-8990
▁indicating	-8991
▁wait	-8992
▁exactly	-8993
owed	-8994
asant	-8995
▁hidden	-8996
▁Foreign	-8997
tha	-8998
▁Bi	-8999
▁prove	-9000
▁wealthy	-9001
▁organised	-9002
▁scen	-9003
▁Spart	-9004
▁permitted	-9005
▁acknowledged	-9006
▁Cyr	-9007
▁Hold	-9008
▁Lang	-9009
▁Pruss	-9010
▁danger	-9011
▁trouble	-9012
▁wrestling	-9013
▁happ	-9014
▁dissipated	-9015
▁improvements	-9016
annon	-9017
▁striking	-9018
▁graduated	-9019
▁Manu	-9020
▁Micro	-9021
▁dressed	-9022
▁realized	-9023
▁appropriate	-9024
▁Windows	-9025
▁confron	-9026
▁ski	-9027
▁Diam	-9028
▁Boys	-9029
▁radical	-9030
atropical	-9031
▁execution	-9032
▁Goth	-9033
▁parent	-9034
▁Napoleon	-9035
▁Fel	-9036
▁UEFA	-9037
▁Griff	-9038
▁meter	-9039
▁observations	-9040
▁raids	-9041
irts	-9042
▁Patt	-9043
▁Outstanding	-9044
▁removal	-9045
▁NAS	-9046
▁profit	-9047
▁travels	-9048
▁interpretation	-9049
bird	-9050
pent	-9051
▁fewer	-9052
▁venue	-9053
▁celebrated	-9054
CAA	-9055
▁encl	-9056
▁aggressive	-9057
▁publications	-9058
oker	-9059
uese	-9060
aments	-9061
▁initiated	-9062
▁Ay	-9063
oons	-9064
rawn	-9065
ifies	-9066
▁turret	-9067
▁theatrical	-9068
▁Kit	-9069
▁chapel	-9070
▁requires	-9071
▁publishing	-9072
▁Gary	-9073
▁evacuated	-9074
elli	-9075
ancouver	-9076
▁debt	-9077
▁Season	-9078
▁jurisd	-9079
▁origins	-9080
▁founding	-9081
▁originated	-9082
▁Vancouver	-9083
▁sharp	-9084
inister	-9085
▁stationed	-9086
▁explan	-9087
▁Tol	-9088
▁Legend	-9089
▁cannon	-9090
▁Jupiter	-9091
▁defending	-9092
▁establishing	-9093
agg	-9094
▁Da	-9095
▁Sem	-9096
▁connect	-9097
itals	-9098
ulous	-9099
▁rebellion	-9100
▁considering	-9101
▁Edin	-9102
ivation	-9103
▁shorter	-9104
▁announcement	-9105
▁arrangements	-9106
agh	-9107
aro	-9108
▁152	-9109
▁net	-9110
▁Lion	-9111
▁brill	-9112
▁supple	-9113
raction	-9114
▁cutting	-9115
▁Bath	-9116
▁Pakistan	-9117
▁guarant	-9118
▁Mountains	-9119
▁tort	-9120
▁bones	-9121
▁steps	-9122
EC	-9123
mund	-9124
▁Gate	-9125
▁Mint	-9126
▁fantasy	-9127
▁Champions	-9128
stan	-9129
▁TNA	-9130
▁Dall	-9131
▁Laur	-9132
▁Drive	-9133
▁magazines	-9134
▁connecting	-9135
rac	-9136
itudes	-9137
▁approaching	-9138
▁hosts	-9139
autical	-9140
▁aspect	-9141
▁donated	-9142
▁extratropical	-9143
▁Cycl	-9144
▁placing	-9145
▁walking	-9146
adier	-9147
▁mush	-9148
▁magic	-9149
▁insects	-9150
▁strategic	-9151
▁lying	-9152
▁Bradman	-9153
▁Portuguese	-9154
▁Champion	-9155
itively	-9156
▁ongoing	-9157
▁discussion	-9158
▁Administration	-9159
▁μ	-9160
ennium	-9161
▁talent	-9162
▁colleagues	-9163
▁lin	-9164
▁funny	-9165
▁memor	-9166
▁edited	-9167
jan	-9168
▁outl	-9169
▁Triple	-9170
▁youngest	-9171
▁closest	-9172
hears	-9173
▁Æthel	-9174
▁predict	-9175
▁gathered	-9176
▁hypothes	-9177
▁qualified	-9178
▁173	-9179
▁Jar	-9180
▁tubes	-9181
▁battlecru	-9182
▁drag	-9183
▁Trophy	-9184
▁decide	-9185
dess	-9186
▁Our	-9187
ipper	-9188
▁forth	-9189
▁volumes	-9190
rous	-9191
▁putting	-9192
▁Deb	-9193
▁Tit	-9194
▁indicates	-9195
▁landscape	-9196
▁watershed	-9197
▁strongest	-9198
▁withdrawal	-9199
▁1893	-9200
▁Dwight	-9201
▁1860	-9202
▁Alice	-9203
▁angle	-9204
▁glac	-9205
ecution	-9206
▁supplied	-9207
▁Cov	-9208
▁Sig	-9209
▁rede	-9210
▁switch	-9211
▁markets	-9212
▁identify	-9213
▁coup	-9214
▁pale	-9215
▁forg	-9216
▁circle	-9217
▁Stu	-9218
▁Marvel	-9219
▁exposure	-9220
▁Sak	-9221
▁merely	-9222
▁specimen	-9223
▁collapsed	-9224
▁anth	-9225
▁1896	-9226
▁gray	-9227
▁challenged	-9228
▁caps	-9229
▁Fleming	-9230
▁confront	-9231
▁Reserve	-9232
▁Mem	-9233
imented	-9234
▁density	-9235
▁partial	-9236
ti	-9237
▁111	-9238
▁cub	-9239
▁Hampshire	-9240
▁Edinburgh	-9241
▁les	-9242
mi	-9243
▁desert	-9244
▁dubbed	-9245
▁visits	-9246
▁NCAA	-9247
▁shift	-9248
▁limits	-9249
▁Honor	-9250
▁affili	-9251
▁feeding	-9252
▁104	-9253
▁bare	-9254
▁beam	-9255
▁Oliver	-9256
▁Potter	-9257
▁Mission	-9258
otte	-9259
▁Ship	-9260
▁Those	-9261
▁Gene	-9262
▁provision	-9263
▁educational	-9264
▁hydrogen	-9265
▁conventional	-9266
▁Joy	-9267
ova	-9268
▁clin	-9269
▁prize	-9270
▁seized	-9271
cks	-9272
▁duo	-9273
earing	-9274
▁Somet	-9275
▁Years	-9276
▁Flying	-9277
▁spac	-9278
▁creek	-9279
▁bearing	-9280
▁annually	-9281
▁concentrated	-9282
vy	-9283
▁topped	-9284
▁membership	-9285
elta	-9286
soft	-9287
▁plain	-9288
▁Afghan	-9289
▁Meteor	-9290
▁attending	-9291
▁champions	-9292
▁Isa	-9293
▁1898	-9294
▁corps	-9295
amental	-9296
▁parody	-9297
▁assembly	-9298
join	-9299
▁ranges	-9300
adal	-9301
idal	-9302
ested	-9303
▁exha	-9304
irates	-9305
case	-9306
▁Ches	-9307
▁Charts	-9308
▁Anc	-9309
▁Lat	-9310
▁cock	-9311
onium	-9312
▁dogs	-9313
▁navy	-9314
▁offense	-9315
CC	-9316
icle	-9317
▁Type	-9318
▁Tob	-9319
▁emphasis	-9320
▁Abd	-9321
▁sad	-9322
▁weekly	-9323
▁Natural	-9324
▁171	-9325
▁furn	-9326
▁Begin	-9327
igenous	-9328
▁exercise	-9329
▁productions	-9330
angle	-9331
▁unless	-9332
▁talking	-9333
anner	-9334
▁ticket	-9335
▁investigate	-9336
agger	-9337
▁basin	-9338
▁Pin	-9339
uzzle	-9340
▁grave	-9341
▁trough	-9342
▁Finally	-9343
athers	-9344
▁Ralph	-9345
▁legit	-9346
▁promotional	-9347
▁Lib	-9348
▁Mosc	-9349
▁anime	-9350
▁Princip	-9351
▁bacter	-9352
hyl	-9353
idae	-9354
▁Beng	-9355
▁Democrats	-9356
enna	-9357
▁Personal	-9358
▁Victorian	-9359
da	-9360
aks	-9361
bow	-9362
▁portrayal	-9363
▁Say	-9364
▁jury	-9365
▁resol	-9366
▁ceased	-9367
▁flooded	-9368
▁fortress	-9369
▁List	-9370
▁Yorkshire	-9371
▁advertising	-9372
ieth	-9373
▁172	-9374
▁bone	-9375
terior	-9376
▁NO	-9377
▁fill	-9378
▁regime	-9379
▁Argentina	-9380
pled	-9381
▁bond	-9382
▁Lloyd	-9383
▁birthday	-9384
▁conservation	-9385
ika	-9386
ugg	-9387
▁Len	-9388
▁Monte	-9389
▁uncle	-9390
▁persons	-9391
▁employment	-9392
▁350	-9393
▁cruc	-9394
▁output	-9395
▁Christianity	-9396
▁sending	-9397
▁attitude	-9398
▁Convention	-9399
▁photographs	-9400
▁Dod	-9401
▁eval	-9402
rising	-9403
▁Village	-9404
▁software	-9405
▁Where	-9406
▁bishop	-9407
▁Brothers	-9408
▁experimental	-9409
▁hitting	-9410
▁questioned	-9411
▁Vi	-9412
▁127	-9413
▁Las	-9414
aders	-9415
ported	-9416
▁Celt	-9417
▁Jerry	-9418
▁Overall	-9419
▁guide	-9420
▁queen	-9421
▁Chronicle	-9422
otal	-9423
▁161	-9424
▁ballad	-9425
▁drinking	-9426
▁scattered	-9427
▁translation	-9428
aux	-9429
▁underwent	-9430
olly	-9431
roying	-9432
▁mature	-9433
▁provincial	-9434
ean	-9435
hous	-9436
▁unclear	-9437
▁overwhel	-9438
▁Lt	-9439
▁1899	-9440
▁coff	-9441
▁endors	-9442
▁assembled	-9443
ello	-9444
▁aggreg	-9445
▁replied	-9446
▁cousin	-9447
▁brig	-9448
▁papers	-9449
▁Collins	-9450
▁representatives	-9451
phone	-9452
▁lawyer	-9453
▁swimming	-9454
gie	-9455
iper	-9456
▁Books	-9457
▁commentary	-9458
iffs	-9459
▁cens	-9460
▁Marge	-9461
▁imagery	-9462
▁proclaim	-9463
▁Pink	-9464
▁coat	-9465
▁outd	-9466
▁clock	-9467
▁empire	-9468
▁thirteen	-9469
▁Maya	-9470
▁loved	-9471
▁Finland	-9472
▁liberal	-9473
▁external	-9474
▁Howe	-9475
▁Craig	-9476
hammad	-9477
▁lawsu	-9478
assador	-9479
▁comprom	-9480
▁terrain	-9481
▁acoustic	-9482
▁pictures	-9483
▁exclusive	-9484
itis	-9485
▁slave	-9486
▁electricity	-9487
▁streak	-9488
▁duration	-9489
▁monaster	-9490
oys	-9491
onica	-9492
▁Deep	-9493
▁Fund	-9494
▁movies	-9495
ications	-9496
▁daughters	-9497
DI	-9498
oa	-9499
angel	-9500
ashes	-9501
▁Turner	-9502
▁wire	-9503
▁devast	-9504
▁accompanying	-9505
▁Om	-9506
▁Apoll	-9507
▁branches	-9508
▁surrendered	-9509
▁Wii	-9510
▁mac	-9511
▁tenure	-9512
▁arrives	-9513
atever	-9514
AR	-9515
▁burial	-9516
▁stronger	-9517
▁identical	-9518
▁expert	-9519
▁succession	-9520
▁Similarly	-9521
ersed	-9522
▁Hardy	-9523
▁Norfolk	-9524
▁reverse	-9525
▁Queensland	-9526
▁components	-9527
▁Py	-9528
▁Andre	-9529
▁beats	-9530
▁Heritage	-9531
▁Na	-9532
riors	-9533
▁dread	-9534
▁stere	-9535
▁reducing	-9536
▁Mong	-9537
▁reveal	-9538
▁charter	-9539
▁Adv	-9540
ensed	-9541
▁reinforcements	-9542
▁Ax	-9543
▁Jama	-9544
▁prices	-9545
pler	-9546
▁108	-9547
▁cad	-9548
▁mal	-9549
▁sang	-9550
▁Belgian	-9551
▁trading	-9552
▁Burton	-9553
▁Protest	-9554
▁Dub	-9555
▁mask	-9556
▁Hawaii	-9557
▁Nicholas	-9558
▁Professor	-9559
▁destroying	-9560
▁spaces	-9561
▁failing	-9562
hard	-9563
▁Eug	-9564
▁scr	-9565
▁Prim	-9566
▁competing	-9567
▁169	-9568
▁penet	-9569
▁mechanical	-9570
▁exclusively	-9571
▁Boat	-9572
ologies	-9573
▁Communist	-9574
▁Prop	-9575
▁recall	-9576
▁Pam	-9577
▁Bennett	-9578
▁stops	-9579
▁atomic	-9580
▁Rangers	-9581
aja	-9582
▁isot	-9583
ellation	-9584
▁component	-9585
▁1850	-9586
▁scar	-9587
esty	-9588
▁Beaut	-9589
▁precipitation	-9590
▁Davies	-9591
▁slavery	-9592
▁developers	-9593
igrants	-9594
▁Cricket	-9595
▁Services	-9596
▁traded	-9597
▁Vincent	-9598
▁devices	-9599
▁governments	-9600
▁Meg	-9601
place	-9602
▁Emmy	-9603
▁Credits	-9604
ricts	-9605
▁Catherine	-9606
hu	-9607
abe	-9608
▁consistent	-9609
▁banned	-9610
▁fossil	-9611
▁reward	-9612
▁mini	-9613
▁Liberal	-9614
▁Medical	-9615
▁centers	-9616
▁varied	-9617
▁flowers	-9618
ibilities	-9619
▁elig	-9620
▁artificial	-9621
▁tube	-9622
▁Living	-9623
▁radiation	-9624
▁Sign	-9625
▁Swift	-9626
▁decay	-9627
▁counterp	-9628
▁considers	-9629
▁platforms	-9630
▁tip	-9631
▁virus	-9632
▁Haz	-9633
▁myst	-9634
▁pole	-9635
▁redes	-9636
▁contribution	-9637
▁Transportation	-9638
OS	-9639
▁Pap	-9640
▁wish	-9641
▁Hughes	-9642
▁earthquake	-9643
▁Training	-9644
▁electrical	-9645
oles	-9646
▁disb	-9647
▁polar	-9648
▁Tak	-9649
▁Local	-9650
▁burned	-9651
pike	-9652
▁Donald	-9653
▁Prix	-9654
▁hybr	-9655
▁architectural	-9656
amas	-9657
▁Lock	-9658
▁dict	-9659
▁humor	-9660
▁waste	-9661
▁reviewed	-9662
▁songwriter	-9663
▁1897	-9664
▁Curt	-9665
▁Look	-9666
▁Malt	-9667
atched	-9668
▁Kl	-9669
▁Thunder	-9670
▁boilers	-9671
▁obsc	-9672
▁Yellow	-9673
▁proceeded	-9674
▁understood	-9675
▁Jun	-9676
▁Kap	-9677
▁Guitar	-9678
▁fourteen	-9679
▁push	-9680
▁talks	-9681
▁advised	-9682
▁handled	-9683
▁frequency	-9684
▁intersects	-9685
imp	-9686
ista	-9687
▁Sle	-9688
▁destroyer	-9689
rastructure	-9690
▁profession	-9691
▁improvement	-9692
ethel	-9693
▁Stri	-9694
▁heir	-9695
▁Market	-9696
▁Peters	-9697
▁Harvard	-9698
▁163	-9699
onald	-9700
▁Glen	-9701
acles	-9702
▁texts	-9703
▁amateur	-9704
▁requirements	-9705
▁Mand	-9706
▁Next	-9707
▁bath	-9708
▁copper	-9709
▁theore	-9710
▁Bak	-9711
▁Saxon	-9712
▁Darwin	-9713
▁samples	-9714
▁conceived	-9715
ags	-9716
▁Dram	-9717
▁ment	-9718
▁Swiss	-9719
▁induct	-9720
▁Trail	-9721
▁phrase	-9722
▁Cameron	-9723
▁conflic	-9724
▁Moscow	-9725
▁sixteen	-9726
▁referring	-9727
▁investment	-9728
▁Oslo	-9729
▁shares	-9730
ür	-9731
▁Kate	-9732
▁reduction	-9733
uras	-9734
▁Inv	-9735
▁Rab	-9736
illes	-9737
▁worn	-9738
uating	-9739
▁users	-9740
▁airfield	-9741
▁certainly	-9742
▁Pittsburgh	-9743
▁Dak	-9744
▁ecc	-9745
itarian	-9746
▁Gallery	-9747
▁charity	-9748
olen	-9749
▁weigh	-9750
iciency	-9751
▁voting	-9752
▁Indonesia	-9753
ulty	-9754
itely	-9755
▁cleared	-9756
▁respective	-9757
ioc	-9758
▁praising	-9759
▁Hob	-9760
▁parks	-9761
▁pel	-9762
▁labour	-9763
axy	-9764
▁lie	-9765
▁Tax	-9766
▁flows	-9767
▁Harbor	-9768
▁exceed	-9769
▁tactics	-9770
▁connections	-9771
▁photography	-9772
▁Geoff	-9773
▁therap	-9774
▁Ko	-9775
▁grossing	-9776
▁spoken	-9777
▁toured	-9778
▁qualifying	-9779
erg	-9780
gom	-9781
▁AS	-9782
▁Ric	-9783
encing	-9784
▁survival	-9785
▁Must	-9786
etheless	-9787
▁constitutional	-9788
▁soph	-9789
▁Blu	-9790
▁quad	-9791
ffield	-9792
▁Terry	-9793
▁autumn	-9794
umble	-9795
▁continuous	-9796
haw	-9797
▁Craw	-9798
▁ruler	-9799
strong	-9800
▁commenced	-9801
▁commanding	-9802
▁106	-9803
▁167	-9804
▁Din	-9805
rehens	-9806
▁sweet	-9807
▁Alaska	-9808
▁Antonio	-9809
▁shoulder	-9810
embr	-9811
razy	-9812
▁nautical	-9813
▁patients	-9814
OT	-9815
▁Tig	-9816
▁taxes	-9817
▁confidence	-9818
▁legislative	-9819
▁lock	-9820
▁tonnes	-9821
▁opportunities	-9822
imm	-9823
▁121	-9824
▁154	-9825
eding	-9826
▁enthusi	-9827
▁reorgan	-9828
▁attorney	-9829
▁stuff	-9830
▁exists	-9831
▁Broadcast	-9832
▁transported	-9833
▁unlik	-9834
▁fisher	-9835
▁Wallace	-9836
hin	-9837
▁Mason	-9838
▁signature	-9839
▁fold	-9840
▁blind	-9841
▁camps	-9842
▁uranium	-9843
▁Microsoft	-9844
▁communist	-9845
▁competitive	-9846
▁Lem	-9847
▁hem	-9848
▁recon	-9849
▁relocated	-9850
▁translated	-9851
▁Dyn	-9852
▁melody	-9853
TWC	-9854
▁Ali	-9855
▁JTWC	-9856
ingham	-9857
▁tested	-9858
▁Mayor	-9859
▁Syria	-9860
▁indeed	-9861
▁reinforced	-9862
ng	-9863
▁minority	-9864
▁Aftermath	-9865
eping	-9866
▁fasc	-9867
▁rocks	-9868
▁traveling	-9869
▁nit	-9870
▁fulf	-9871
porting	-9872
▁fairly	-9873
▁revolt	-9874
▁revised	-9875
▁commanders	-9876
▁pairs	-9877
▁dece	-9878
cester	-9879
eyer	-9880
▁Bald	-9881
▁Kane	-9882
icated	-9883
▁Sweet	-9884
▁noble	-9885
bes	-9886
▁Farm	-9887
▁sovereign	-9888
▁Gor	-9889
▁unw	-9890
▁Ferr	-9891
▁Still	-9892
▁Upper	-9893
▁manga	-9894
expected	-9895
ayan	-9896
▁explicit	-9897
▁impression	-9898
venth	-9899
▁cartoon	-9900
▁withdrawn	-9901
▁lad	-9902
ambers	-9903
enesis	-9904
vant	-9905
▁Grace	-9906
▁crops	-9907
onian	-9908
▁Sheffield	-9909
▁programming	-9910
avor	-9911
▁Israeli	-9912
▁dischar	-9913
urricanes	-9914
▁extending	-9915
eared	-9916
▁Larry	-9917
▁displaced	-9918
▁accord	-9919
▁experiments	-9920
▁Luke	-9921
▁promin	-9922
▁voices	-9923
▁Officer	-9924
▁principles	-9925
avia	-9926
▁Stars	-9927
▁blues	-9928
▁extinct	-9929
▁Security	-9930
mith	-9931
▁1895	-9932
▁Mond	-9933
▁Stef	-9934
▁learns	-9935
▁magnitude	-9936
▁representation	-9937
▁Thr	-9938
▁Tow	-9939
▁fram	-9940
▁hole	-9941
legraph	-9942
▁prisoner	-9943
▁provinces	-9944
andom	-9945
▁uncon	-9946
▁Jefferson	-9947
▁characteristic	-9948
▁Rud	-9949
where	-9950
▁distant	-9951
wa	-9952
▁moon	-9953
▁enforce	-9954
▁See	-9955
isive	-9956
ussion	-9957
▁Dallas	-9958
▁culmin	-9959
▁marine	-9960
cott	-9961
▁Emer	-9962
▁summ	-9963
▁Bryan	-9964
▁Exper	-9965
▁GameS	-9966
▁abuse	-9967
▁sample	-9968
▁Pictures	-9969
▁interpreted	-9970
▁nat	-9971
▁Herald	-9972
▁lights	-9973
▁Johnston	-9974
▁MS	-9975
▁XI	-9976
hell	-9977
▁Hey	-9978
▁warfare	-9979
▁Cyrus	-9980
▁Together	-9981
▁RP	-9982
▁Phys	-9983
▁Clarke	-9984
▁relatives	-9985
▁conce	-9986
▁compound	-9987
▁practical	-9988
▁craft	-9989
▁rivalry	-9990
▁approaches	-9991
▁AM	-9992
▁herit	-9993
▁wonder	-9994
▁cuts	-9995
▁Guinea	-9996
▁id	-9997
▁Clay	-9998
▁tomb	-9999
▁Performance	-10000
adesh	-10001
▁Half	-10002
▁Malaysia	-10003
▁Eff	-10004
▁nerv	-10005
▁airing	-10006
▁Ni	-10007
▁burning	-10008
▁shifted	-10009
▁displays	-10010
▁proposals	-10011
▁traditions	-10012
▁carries	-10013
▁lighting	-10014
feld	-10015
▁Chile	-10016
▁Orange	-10017
▁Defense	-10018
▁rehears	-10019
▁warnings	-10020
▁blocked	-10021
▁multiplayer	-10022
▁Got	-10023
▁Nav	-10024
▁Ori	-10025
aching	-10026
▁Wells	-10027
▁Austin	-10028
▁restore	-10029
▁medicine	-10030
▁girlfriend	-10031
▁victim	-10032
▁graduate	-10033
▁participation	-10034
eto	-10035
▁FBI	-10036
▁sings	-10037
▁myster	-10038
▁rebels	-10039
▁Greater	-10040
▁Parsons	-10041
▁Official	-10042
▁Pic	-10043
▁Past	-10044
▁judg	-10045
▁Quest	-10046
▁preparing	-10047
▁transportation	-10048
▁HD	-10049
▁Neil	-10050
▁Owen	-10051
▁skill	-10052
▁scores	-10053
run	-10054
▁Eight	-10055
▁Osc	-10056
▁Chelsea	-10057
umph	-10058
▁absent	-10059
aman	-10060
utton	-10061
▁Falls	-10062
▁conven	-10063
▁valuable	-10064
▁interviews	-10065
asa	-10066
▁cyclones	-10067
▁protests	-10068
▁Formation	-10069
▁AT	-10070
▁Woman	-10071
▁chore	-10072
▁riding	-10073
▁wished	-10074
ationally	-10075
▁brilliant	-10076
umped	-10077
▁Ze	-10078
▁Rest	-10079
▁filmm	-10080
▁salary	-10081
▁thunder	-10082
▁unlikely	-10083
▁Armstrong	-10084
merce	-10085
▁Brazilian	-10086
ović	-10087
rooms	-10088
▁McKin	-10089
▁trunk	-10090
▁Danish	-10091
▁Classic	-10092
▁recovery	-10093
▁Description	-10094
▁Mix	-10095
▁cabinet	-10096
▁maintaining	-10097
▁Sega	-10098
▁salv	-10099
▁Beginning	-10100
uez	-10101
▁Steel	-10102
▁march	-10103
▁Fisher	-10104
▁Quebec	-10105
▁Orle	-10106
▁passion	-10107
▁reforms	-10108
▁Greatest	-10109
▁districts	-10110
▁cinema	-10111
▁intervention	-10112
▁ing	-10113
▁Studio	-10114
▁arguing	-10115
▁estimates	-10116
ocity	-10117
▁Priv	-10118
▁Fourth	-10119
▁harbour	-10120
oca	-10121
▁Rena	-10122
▁racial	-10123
▁courses	-10124
▁drummer	-10125
▁AP	-10126
▁Eve	-10127
▁garn	-10128
▁beneath	-10129
▁contend	-10130
▁recurring	-10131
▁grandfather	-10132
▁fest	-10133
▁infl	-10134
▁pier	-10135
▁Actor	-10136
▁Pa	-10137
▁Spr	-10138
▁significance	-10139
▁vulnerable	-10140
hum	-10141
rod	-10142
▁aft	-10143
▁kills	-10144
▁eating	-10145
▁petition	-10146
hl	-10147
▁towers	-10148
▁accurate	-10149
▁Som	-10150
▁web	-10151
▁bull	-10152
▁releg	-10153
▁advertis	-10154
▁pap	-10155
▁Liter	-10156
▁upset	-10157
▁diverse	-10158
MI	-10159
▁Daw	-10160
▁Rio	-10161
▁Tai	-10162
▁Authority	-10163
▁Cathedral	-10164
▁Ec	-10165
▁statistics	-10166
▁communications	-10167
ön	-10168
▁Eis	-10169
▁Agency	-10170
▁sponsored	-10171
▁Cad	-10172
▁valid	-10173
▁applications	-10174
▁Ker	-10175
▁Orleans	-10176
▁Constantin	-10177
▁clar	-10178
▁Kaiser	-10179
bal	-10180
▁Susan	-10181
▁Spirit	-10182
▁numbered	-10183
▁efficient	-10184
rost	-10185
▁Nev	-10186
achute	-10187
▁airline	-10188
▁Cultural	-10189
▁unexpected	-10190
▁clothes	-10191
▁Utah	-10192
▁hind	-10193
▁Harold	-10194
umented	-10195
▁Junior	-10196
▁decorated	-10197
▁102	-10198
▁Globe	-10199
▁Plant	-10200
▁sacrif	-10201
▁Serbian	-10202
nt	-10203
▁Fu	-10204
▁Cass	-10205
▁lasting	-10206
▁faces	-10207
▁shallow	-10208
▁essentially	-10209
asm	-10210
▁Link	-10211
▁shock	-10212
▁inclusion	-10213
▁tale	-10214
▁toler	-10215
onge	-10216
▁1861	-10217
▁FIFA	-10218
▁surprised	-10219
▁answer	-10220
▁consolid	-10221
▁CBS	-10222
ource	-10223
▁mate	-10224
▁steep	-10225
▁gender	-10226
▁charted	-10227
▁iP	-10228
▁pm	-10229
ario	-10230
▁1889	-10231
▁mood	-10232
▁emotion	-10233
▁Richmond	-10234
▁liner	-10235
osexual	-10236
▁′	-10237
ocy	-10238
▁deeply	-10239
abilities	-10240
lete	-10241
▁paras	-10242
▁beaten	-10243
uto	-10244
▁theories	-10245
▁squadrons	-10246
atra	-10247
beat	-10248
▁morph	-10249
▁ratio	-10250
▁trick	-10251
▁merged	-10252
▁Muhammad	-10253
▁1894	-10254
▁invent	-10255
▁manage	-10256
▁Province	-10257
▁Constantine	-10258
▁potentially	-10259
ATO	-10260
▁fate	-10261
▁summit	-10262
▁Newton	-10263
▁drafted	-10264
▁screenplay	-10265
▁Republicans	-10266
urd	-10267
▁158	-10268
▁Vers	-10269
▁Tyler	-10270
▁Pad	-10271
erver	-10272
▁Salt	-10273
▁cant	-10274
▁tours	-10275
▁suspic	-10276
▁processes	-10277
ashi	-10278
utor	-10279
▁Scientology	-10280
▁jet	-10281
▁Sac	-10282
eston	-10283
▁1891	-10284
▁swit	-10285
atical	-10286
▁embr	-10287
▁descent	-10288
▁Gay	-10289
▁Hav	-10290
levard	-10291
▁crimes	-10292
▁dancers	-10293
▁sentence	-10294
aze	-10295
▁demo	-10296
▁Stuart	-10297
▁proportion	-10298
és	-10299
Arthur	-10300
▁segments	-10301
▁civilians	-10302
▁persuaded	-10303
affe	-10304
aters	-10305
▁Mend	-10306
▁dense	-10307
▁beauty	-10308
▁Fighter	-10309
▁beating	-10310
▁162	-10311
itious	-10312
▁Panzer	-10313
▁dual	-10314
▁funded	-10315
▁heritage	-10316
▁implemented	-10317
▁113	-10318
▁YouT	-10319
reated	-10320
▁Minor	-10321
▁Apollo	-10322
▁accommodate	-10323
▁altitude	-10324
illo	-10325
reens	-10326
ucker	-10327
▁YouTube	-10328
▁reactions	-10329
aiden	-10330
▁hills	-10331
▁Product	-10332
▁Yam	-10333
itate	-10334
keeper	-10335
▁colors	-10336
▁Picture	-10337
▁1000	-10338
landers	-10339
▁Orchest	-10340
▁holiday	-10341
▁agriculture	-10342
▁presentation	-10343
▁Buffalo	-10344
▁Sug	-10345
anche	-10346
▁golden	-10347
▁Amendment	-10348
▁complained	-10349
▁structural	-10350
oded	-10351
▁Eth	-10352
▁XII	-10353
▁feared	-10354
▁administer	-10355
▁Vl	-10356
▁1892	-10357
▁devoted	-10358
▁Scar	-10359
▁Indonesian	-10360
▁Kam	-10361
castle	-10362
istent	-10363
▁Cardiff	-10364
▁columns	-10365
▁addressed	-10366
▁evident	-10367
▁sailing	-10368
▁requiring	-10369
▁manip	-10370
▁proof	-10371
ocation	-10372
▁rejoin	-10373
▁Symphony	-10374
▁southeastern	-10375
aha	-10376
▁wine	-10377
▁Ivan	-10378
▁merc	-10379
▁dwarf	-10380
▁oriented	-10381
aping	-10382
▁Sout	-10383
▁breaks	-10384
oda	-10385
▁fame	-10386
▁nurs	-10387
▁Conservation	-10388
▁Days	-10389
▁Nord	-10390
▁error	-10391
▁tribe	-10392
▁observation	-10393
▁156	-10394
▁Without	-10395
▁Electric	-10396
▁followers	-10397
▁mythology	-10398
enson	-10399
onsin	-10400
▁cards	-10401
▁voyage	-10402
▁Register	-10403
▁Vel	-10404
▁bell	-10405
▁kidn	-10406
▁Danny	-10407
▁Brooks	-10408
▁judges	-10409
▁confusion	-10410
▁interaction	-10411
berry	-10412
▁1800	-10413
▁Fact	-10414
▁knee	-10415
▁Hunter	-10416
▁pregnant	-10417
▁researchers	-10418
▁MI	-10419
▁Kyle	-10420
▁Sox	-10421
▁pip	-10422
▁boot	-10423
▁quarters	-10424
▁jurisdiction	-10425
▁gene	-10426
▁Burns	-10427
▁Cavalry	-10428
asha	-10429
▁Full	-10430
▁Sultan	-10431
▁recept	-10432
▁Section	-10433
▁operates	-10434
▁Wisc	-10435
usalem	-10436
▁Ground	-10437
▁Nature	-10438
▁suddenly	-10439
▁categories	-10440
▁Until	-10441
▁Islamic	-10442
▁Gw	-10443
▁pink	-10444
▁opens	-10445
▁commenting	-10446
je	-10447
ospel	-10448
▁Ruth	-10449
▁writings	-10450
▁diplomatic	-10451
▁oblig	-10452
▁embarked	-10453
heric	-10454
▁intermedi	-10455
mn	-10456
▁135	-10457
rific	-10458
▁Actress	-10459
▁physics	-10460
▁tension	-10461
▁⁄	-10462
car	-10463
isons	-10464
▁Johann	-10465
▁superst	-10466
▁advancing	-10467
▁sculpture	-10468
▁highlighted	-10469
▁rib	-10470
▁extensively	-10471
▁Metropolitan	-10472
▁Hope	-10473
▁Walt	-10474
▁rect	-10475
▁sized	-10476
▁₹	-10477
▁thrown	-10478
▁similarities	-10479
owski	-10480
▁ages	-10481
▁fert	-10482
▁Boeing	-10483
▁gaining	-10484
▁studying	-10485
▁Jerusalem	-10486
▁principle	-10487
▁challenges	-10488
hers	-10489
▁Terr	-10490
▁assum	-10491
▁bears	-10492
▁sugar	-10493
minster	-10494
▁CO	-10495
▁ho	-10496
▁Airlines	-10497
▁CS	-10498
othy	-10499
▁Pok	-10500
▁Side	-10501
▁vari	-10502
▁Executive	-10503
▁Wisconsin	-10504
pot	-10505
boards	-10506
▁Bible	-10507
▁Justin	-10508
▁gardens	-10509
fr	-10510
▁Abu	-10511
amount	-10512
▁Reich	-10513
▁153	-10514
gomery	-10515
▁Trade	-10516
▁drown	-10517
▁manif	-10518
▁equally	-10519
▁lifetime	-10520
▁sentenced	-10521
▁Montgomery	-10522
▁statements	-10523
eness	-10524
▁neighb	-10525
▁Edition	-10526
▁Typhoon	-10527
▁knocked	-10528
▁McN	-10529
▁jack	-10530
▁constitu	-10531
▁infrastructure	-10532
▁fee	-10533
assed	-10534
▁locally	-10535
▁educated	-10536
sts	-10537
born	-10538
ocket	-10539
▁Legisl	-10540
anted	-10541
▁rivals	-10542
▁disturbance	-10543
▁240	-10544
▁Start	-10545
▁Barnes	-10546
▁orange	-10547
▁gift	-10548
▁Based	-10549
▁Titan	-10550
▁tooth	-10551
▁divorce	-10552
▁dealing	-10553
▁predators	-10554
▁boundaries	-10555
▁traditionally	-10556
nels	-10557
thodox	-10558
▁Schum	-10559
▁Env	-10560
▁ties	-10561
▁Grade	-10562
▁Wonder	-10563
▁variation	-10564
▁Prest	-10565
▁priest	-10566
▁overlook	-10567
▁Independence	-10568
▁universal	-10569
▁documented	-10570
▁PS	-10571
▁Crus	-10572
ancellor	-10573
▁explaining	-10574
ye	-10575
▁empty	-10576
▁resolved	-10577
TS	-10578
▁Turkey	-10579
▁1888	-10580
▁stretch	-10581
▁Attorney	-10582
▁Bes	-10583
▁Rogers	-10584
▁receives	-10585
enos	-10586
▁amph	-10587
isfact	-10588
▁Miles	-10589
▁rings	-10590
▁spawn	-10591
▁Century	-10592
▁enabled	-10593
▁sword	-10594
▁recruited	-10595
▁settlements	-10596
arks	-10597
pine	-10598
▁Baron	-10599
lington	-10600
▁Control	-10601
▁garnered	-10602
▁Scots	-10603
▁travelling	-10604
▁considerably	-10605
▁Sean	-10606
▁naming	-10607
▁explore	-10608
▁benefits	-10609
▁discontin	-10610
▁commercially	-10611
oria	-10612
▁1885	-10613
▁tape	-10614
▁helps	-10615
▁tickets	-10616
▁villain	-10617
▁Cemetery	-10618
▁MacArthur	-10619
opp	-10620
quest	-10621
▁Saturn	-10622
▁rescued	-10623
▁mud	-10624
▁options	-10625
ét	-10626
osaurs	-10627
▁crashed	-10628
▁hostile	-10629
▁urg	-10630
▁Aber	-10631
▁Icel	-10632
▁lift	-10633
▁ashore	-10634
▁substitute	-10635
▁tu	-10636
▁Tang	-10637
▁seas	-10638
ulsion	-10639
ometric	-10640
▁involves	-10641
▁weakening	-10642
▁nep	-10643
▁Leaf	-10644
▁Quar	-10645
▁supern	-10646
▁smoke	-10647
▁batted	-10648
▁tasked	-10649
▁disorder	-10650
▁proteins	-10651
ando	-10652
▁Sid	-10653
piece	-10654
▁forb	-10655
angular	-10656
▁guy	-10657
▁Gang	-10658
▁Pierre	-10659
▁escorted	-10660
▁Christians	-10661
▁concerning	-10662
▁Ages	-10663
▁dying	-10664
▁housed	-10665
unning	-10666
▁Mall	-10667
▁doors	-10668
▁assert	-10669
▁Ins	-10670
▁dim	-10671
▁Patri	-10672
▁detect	-10673
▁depicts	-10674
▁inning	-10675
▁obvious	-10676
▁elaborate	-10677
▁Um	-10678
aple	-10679
ovak	-10680
▁Baltic	-10681
▁borrow	-10682
▁Iceland	-10683
▁pursuit	-10684
▁circular	-10685
▁concurrent	-10686
▁volunteers	-10687
iar	-10688
▁Judge	-10689
▁dimin	-10690
▁dinner	-10691
▁imprisoned	-10692
▁gods	-10693
▁innoc	-10694
▁Management	-10695
▁authorized	-10696
▁collections	-10697
iko	-10698
▁Fitz	-10699
▁inhib	-10700
▁navig	-10701
▁Spider	-10702
▁Thames	-10703
▁editions	-10704
▁warships	-10705
▁conflicts	-10706
▁competitions	-10707
▁flex	-10708
▁Romney	-10709
▁teammate	-10710
▁pursued	-10711
▁UC	-10712
▁Athens	-10713
▁Hearts	-10714
▁Barbara	-10715
uters	-10716
▁tempo	-10717
▁revival	-10718
▁1865	-10719
▁Mind	-10720
master	-10721
▁Movie	-10722
▁favourite	-10723
vet	-10724
▁Ta	-10725
edia	-10726
▁spar	-10727
lights	-10728
▁reass	-10729
▁eventual	-10730
▁politicians	-10731
rien	-10732
▁Evil	-10733
▁Pant	-10734
▁beliefs	-10735
▁virtually	-10736
▁Stra	-10737
▁ramp	-10738
▁styl	-10739
▁opposing	-10740
▁Aren	-10741
▁urged	-10742
▁chemistry	-10743
▁112	-10744
▁vig	-10745
agers	-10746
▁Tourn	-10747
▁Reagan	-10748
▁Against	-10749
▁Sherman	-10750
▁renewed	-10751
▁manufacturing	-10752
▁NATO	-10753
▁fron	-10754
▁drain	-10755
▁Comedy	-10756
▁veteran	-10757
▁handling	-10758
▁Kan	-10759
▁Wes	-10760
▁abroad	-10761
▁Representatives	-10762
▁Code	-10763
▁Zone	-10764
▁chase	-10765
▁census	-10766
▁mixture	-10767
▁Nancy	-10768
▁velocity	-10769
▁Toy	-10770
▁Winn	-10771
▁handle	-10772
▁stones	-10773
▁Regional	-10774
▁portrait	-10775
▁examination	-10776
▁Ted	-10777
▁epic	-10778
▁universities	-10779
▁Bask	-10780
uction	-10781
▁suspected	-10782
lon	-10783
▁Il	-10784
▁131	-10785
▁Flore	-10786
rene	-10787
▁nut	-10788
backs	-10789
▁Flow	-10790
▁Hunt	-10791
▁unve	-10792
▁Fight	-10793
▁cable	-10794
▁stolen	-10795
ublin	-10796
▁Meth	-10797
▁pill	-10798
▁medals	-10799
▁promise	-10800
▁participants	-10801
▁Vic	-10802
▁Tribune	-10803
▁rushing	-10804
▁Amb	-10805
▁Sonic	-10806
▁trailer	-10807
▁gh	-10808
wright	-10809
▁colours	-10810
▁congress	-10811
▁rendered	-10812
▁promoting	-10813
▁remembered	-10814
▁laps	-10815
▁thereby	-10816
▁organisms	-10817
ME	-10818
▁Fish	-10819
▁Nova	-10820
▁inherited	-10821
rh	-10822
lane	-10823
▁145	-10824
▁Report	-10825
▁pitcher	-10826
▁apply	-10827
▁taste	-10828
▁verte	-10829
▁cattle	-10830
▁convey	-10831
▁sharks	-10832
▁conj	-10833
▁spur	-10834
▁analog	-10835
izer	-10836
▁Ref	-10837
▁leaf	-10838
▁Krist	-10839
isition	-10840
onation	-10841
▁comics	-10842
▁Any	-10843
▁Had	-10844
▁Stein	-10845
▁Branch	-10846
▁Portugal	-10847
▁capturing	-10848
▁117	-10849
▁Invest	-10850
▁interven	-10851
▁Newcastle	-10852
gow	-10853
rift	-10854
seud	-10855
▁159	-10856
▁trapped	-10857
▁decreased	-10858
arest	-10859
▁Face	-10860
▁Fern	-10861
▁tissue	-10862
▁costume	-10863
▁tracked	-10864
▁bombardment	-10865
ulus	-10866
▁positively	-10867
▁Constantinople	-10868
▁Nas	-10869
▁Crow	-10870
▁hopes	-10871
▁inhab	-10872
▁Ernest	-10873
▁accidentally	-10874
▁compositions	-10875
▁Beh	-10876
▁Und	-10877
inery	-10878
▁ol	-10879
▁invaded	-10880
▁CP	-10881
▁tel	-10882
ellar	-10883
▁metric	-10884
▁prototype	-10885
▁celebration	-10886
oids	-10887
▁Neb	-10888
▁blend	-10889
▁Personnel	-10890
▁prox	-10891
▁Draft	-10892
▁juven	-10893
▁warned	-10894
▁confirm	-10895
urst	-10896
▁Pete	-10897
▁vital	-10898
▁tornado	-10899
▁Charlotte	-10900
▁occasional	-10901
▁450	-10902
▁fra	-10903
▁maps	-10904
▁links	-10905
ridor	-10906
▁loud	-10907
▁Magic	-10908
▁Heavyweight	-10909
▁118	-10910
▁José	-10911
▁hoping	-10912
anim	-10913
▁Bert	-10914
▁anticipated	-10915
▁Joint	-10916
▁Bright	-10917
▁upcoming	-10918
▁Laboratory	-10919
▁Heb	-10920
▁1864	-10921
▁Merced	-10922
▁Affairs	-10923
▁Liberty	-10924
▁boyfriend	-10925
▁variations	-10926
▁Environment	-10927
▁NS	-10928
limin	-10929
▁thro	-10930
▁Cornwall	-10931
avan	-10932
▁avo	-10933
rible	-10934
▁rains	-10935
▁Others	-10936
▁goddess	-10937
otion	-10938
ampton	-10939
▁Chapel	-10940
▁bomber	-10941
▁batteries	-10942
▁Chad	-10943
▁Poly	-10944
▁dozen	-10945
▁marking	-10946
▁laboratory	-10947
▁provisions	-10948
OC	-10949
▁genu	-10950
enburg	-10951
igious	-10952
▁sinking	-10953
▁accessible	-10954
▁impressive	-10955
eff	-10956
▁114	-10957
▁guests	-10958
▁separation	-10959
▁Youth	-10960
roe	-10961
▁Voice	-10962
▁Freedom	-10963
tes	-10964
colm	-10965
▁laugh	-10966
▁easier	-10967
▁Filming	-10968
▁scandal	-10969
▁horizont	-10970
▁nickname	-10971
▁dependent	-10972
▁biological	-10973
anne	-10974
iga	-10975
erts	-10976
▁ib	-10977
▁Sud	-10978
▁supports	-10979
▁politician	-10980
▁sor	-10981
▁Glas	-10982
▁parliamentary	-10983
▁fires	-10984
▁avoided	-10985
▁threats	-10986
▁indigenous	-10987
▁rever	-10988
restrial	-10989
▁consumption	-10990
▁nose	-10991
▁Leices	-10992
▁Friends	-10993
ilda	-10994
artime	-10995
▁afford	-10996
ardo	-10997
▁Bud	-10998
▁Pul	-10999
▁cow	-11000
▁dust	-11001
▁Winds	-11002
▁random	-11003
▁Marines	-11004
▁progressed	-11005
aco	-11006
▁Chester	-11007
▁Armenian	-11008
▁deputy	-11009
▁formula	-11010
▁biography	-11011
▁restrictions	-11012
icking	-11013
▁Kenneth	-11014
▁Members	-11015
▁corporate	-11016
rior	-11017
▁Agu	-11018
▁lighter	-11019
▁volcanic	-11020
▁fed	-11021
▁eld	-11022
agles	-11023
▁Cryst	-11024
▁liver	-11025
▁truly	-11026
▁Malcolm	-11027
ín	-11028
hill	-11029
▁imposed	-11030
▁Protestant	-11031
▁Meteorological	-11032
▁Oscar	-11033
▁mixing	-11034
osph	-11035
ught	-11036
▁Case	-11037
▁rugby	-11038
▁Energy	-11039
▁Orchestra	-11040
▁occurring	-11041
▁particles	-11042
▁sav	-11043
▁Vick	-11044
▁Pedro	-11045
▁usage	-11046
▁murdered	-11047
▁Chamberlain	-11048
cliff	-11049
eling	-11050
▁Bapt	-11051
▁Cena	-11052
▁Duch	-11053
▁fier	-11054
▁produces	-11055
▁Tu	-11056
▁Tru	-11057
▁fles	-11058
▁Bears	-11059
▁toxic	-11060
▁noticed	-11061
▁evacuation	-11062
held	-11063
▁Skin	-11064
▁cash	-11065
▁Lower	-11066
▁dreadn	-11067
ailing	-11068
▁Isaac	-11069
▁license	-11070
▁Boulevard	-11071
▁customers	-11072
▁Beth	-11073
▁contracts	-11074
▁defenders	-11075
▁enh	-11076
▁Cinc	-11077
▁Dublin	-11078
orted	-11079
▁acre	-11080
ielder	-11081
▁DJ	-11082
isan	-11083
▁ERA	-11084
▁Tree	-11085
▁exile	-11086
▁wound	-11087
changed	-11088
ocal	-11089
oples	-11090
▁1862	-11091
▁Chair	-11092
▁Sic	-11093
▁Cinem	-11094
▁lawsuit	-11095
▁cathedral	-11096
▁Zero	-11097
▁Athletic	-11098
ptic	-11099
▁relation	-11100
fly	-11101
amics	-11102
▁Peng	-11103
▁grap	-11104
▁wake	-11105
▁choir	-11106
▁Cyclone	-11107
▁Room	-11108
▁intent	-11109
▁ordinary	-11110
▁speculation	-11111
enberg	-11112
▁killer	-11113
▁nephew	-11114
gé	-11115
▁XX	-11116
action	-11117
▁Antar	-11118
▁debris	-11119
▁engineers	-11120
NC	-11121
▁angry	-11122
▁hence	-11123
▁stall	-11124
▁plates	-11125
ía	-11126
▁LP	-11127
▁Saf	-11128
▁Term	-11129
▁depicting	-11130
point	-11131
▁Eddie	-11132
▁Action	-11133
▁Career	-11134
▁Bradley	-11135
icken	-11136
▁aside	-11137
▁timber	-11138
▁eastward	-11139
▁disappointed	-11140
▁Guild	-11141
▁MV	-11142
▁prest	-11143
▁threatening	-11144
▁developments	-11145
▁intellectual	-11146
▁Fil	-11147
▁kilog	-11148
▁ignored	-11149
▁Glee	-11150
▁decrease	-11151
▁encounters	-11152
▁industries	-11153
▁Continental	-11154
▁Break	-11155
▁Gabri	-11156
▁lyrical	-11157
▁conquest	-11158
▁Tournament	-11159
▁throwing	-11160
ulum	-11161
▁Metro	-11162
izz	-11163
▁cam	-11164
overed	-11165
▁Serbia	-11166
▁Archbishop	-11167
▁complicated	-11168
▁territorial	-11169
eps	-11170
uri	-11171
▁mechanism	-11172
▁undertaken	-11173
quer	-11174
▁abb	-11175
▁mol	-11176
▁Alberta	-11177
▁Cincinn	-11178
▁thunderstorm	-11179
▁revolutionary	-11180
▁Saw	-11181
▁Traff	-11182
▁Altern	-11183
▁vicinity	-11184
gett	-11185
▁Take	-11186
▁Watch	-11187
▁mounts	-11188
▁convicted	-11189
mo	-11190
▁elite	-11191
▁strikes	-11192
▁touchdowns	-11193
▁Has	-11194
▁humanity	-11195
▁une	-11196
emble	-11197
▁Bark	-11198
▁exhibit	-11199
▁conversation	-11200
▁championships	-11201
auc	-11202
aneous	-11203
entieth	-11204
▁focuses	-11205
▁confident	-11206
▁107	-11207
▁Tommy	-11208
▁Collection	-11209
▁Springfield	-11210
osion	-11211
▁remin	-11212
umbered	-11213
▁lacking	-11214
▁mammals	-11215
▁contacted	-11216
▁inaugural	-11217
▁Gon	-11218
▁Micha	-11219
▁entert	-11220
▁realistic	-11221
▁fab	-11222
▁therm	-11223
▁Future	-11224
▁farmers	-11225
▁preserve	-11226
▁suspension	-11227
▁Than	-11228
heimer	-11229
▁Gates	-11230
▁Đ	-11231
▁gif	-11232
racks	-11233
▁ward	-11234
▁Place	-11235
▁Villa	-11236
▁boost	-11237
▁Muslims	-11238
▁constantly	-11239
▁RO	-11240
rogen	-11241
▁Shah	-11242
▁arose	-11243
▁Gibral	-11244
▁Joan	-11245
▁ferry	-11246
▁metre	-11247
▁infection	-11248
▁Yugoslavia	-11249
▁helicopter	-11250
▁breast	-11251
itime	-11252
▁facil	-11253
▁Studies	-11254
▁diamond	-11255
idia	-11256
▁157	-11257
▁voters	-11258
▁Marshal	-11259
ovic	-11260
▁stim	-11261
liminary	-11262
▁feathers	-11263
▁collaborated	-11264
▁predominantly	-11265
oba	-11266
▁1840	-11267
▁posts	-11268
▁stern	-11269
▁tools	-11270
▁thorough	-11271
iked	-11272
encer	-11273
▁Canu	-11274
▁Malta	-11275
▁desper	-11276
▁asserted	-11277
▁Slav	-11278
▁Shiva	-11279
▁Wagner	-11280
▁Ent	-11281
icing	-11282
▁Cand	-11283
▁Jake	-11284
▁Mang	-11285
hanced	-11286
▁patient	-11287
▁absorbed	-11288
▁Gibraltar	-11289
▁Maine	-11290
mont	-11291
▁castles	-11292
▁centered	-11293
▁releasing	-11294
etary	-11295
▁Shep	-11296
▁holes	-11297
LA	-11298
osy	-11299
▁Pas	-11300
▁grows	-11301
▁infer	-11302
▁removing	-11303
▁Cincinnati	-11304
▁mos	-11305
▁por	-11306
quiry	-11307
▁Taiwan	-11308
▁peninsula	-11309
▁220	-11310
▁Parks	-11311
▁illustrated	-11312
▁Vo	-11313
▁Sex	-11314
▁mit	-11315
▁Rear	-11316
▁Ancient	-11317
▁Angelou	-11318
▁Friedrich	-11319
▁explanation	-11320
oirs	-11321
▁tune	-11322
rolled	-11323
▁knows	-11324
▁Comics	-11325
▁speeds	-11326
▁sustain	-11327
oting	-11328
▁Hood	-11329
▁user	-11330
ortion	-11331
▁Bulgar	-11332
▁apolog	-11333
itol	-11334
▁Robin	-11335
▁compiled	-11336
▁Luft	-11337
▁breeds	-11338
▁canceled	-11339
onial	-11340
▁bowl	-11341
leb	-11342
▁Ord	-11343
▁Reed	-11344
▁Tint	-11345
▁penn	-11346
▁antib	-11347
▁photo	-11348
▁resid	-11349
▁retrie	-11350
▁relieved	-11351
▁situations	-11352
▁isn	-11353
ellers	-11354
▁Waters	-11355
▁Normandy	-11356
▁independently	-11357
itic	-11358
▁enorm	-11359
▁Bulg	-11360
▁chrom	-11361
regular	-11362
WA	-11363
alg	-11364
hou	-11365
auge	-11366
▁Lords	-11367
▁roadway	-11368
▁Uk	-11369
odium	-11370
ubble	-11371
▁1887	-11372
▁Hull	-11373
▁da	-11374
gans	-11375
▁978	-11376
▁Maced	-11377
▁Vegas	-11378
▁lover	-11379
▁Shield	-11380
▁pleased	-11381
Hg	-11382
▁NH	-11383
asury	-11384
iture	-11385
▁incom	-11386
issioned	-11387
▁Alliance	-11388
▁offshore	-11389
▁Camb	-11390
▁Olivia	-11391
▁layers	-11392
▁marched	-11393
▁Afghanistan	-11394
▁Chet	-11395
▁Round	-11396
▁sheep	-11397
▁clergy	-11398
▁HI	-11399
▁Hom	-11400
▁locomotives	-11401
hart	-11402
▁1863	-11403
▁VIII	-11404
▁Madison	-11405
▁viewing	-11406
▁outstanding	-11407
▁perc	-11408
▁couldn	-11409
▁Twitter	-11410
▁recruit	-11411
assy	-11412
ipher	-11413
▁Burke	-11414
▁arena	-11415
▁genres	-11416
▁paying	-11417
▁Conservative	-11418
▁Mi	-11419
▁126	-11420
▁132	-11421
▁1886	-11422
▁Edmund	-11423
▁expanding	-11424
ocol	-11425
▁pig	-11426
▁closure	-11427
▁prosper	-11428
▁varying	-11429
▁Technology	-11430
cha	-11431
atsu	-11432
▁Pay	-11433
▁Gregory	-11434
▁Leeds	-11435
▁Former	-11436
▁colored	-11437
umberland	-11438
▁Schumacher	-11439
▁disappeared	-11440
akh	-11441
occ	-11442
▁119	-11443
overty	-11444
▁Revolutionary	-11445
▁cu	-11446
▁Kid	-11447
▁mild	-11448
▁reporting	-11449
▁suggestion	-11450
▁regulations	-11451
rels	-11452
▁Poké	-11453
▁JNA	-11454
▁aest	-11455
▁celebrate	-11456
▁atop	-11457
▁Orton	-11458
▁armoured	-11459
ieg	-11460
▁LS	-11461
▁hybrid	-11462
▁fungus	-11463
▁Brooklyn	-11464
▁sentiment	-11465
instein	-11466
▁Mercury	-11467
▁inducted	-11468
▁conspiracy	-11469
▁bapt	-11470
ennial	-11471
ischer	-11472
▁blast	-11473
▁Julian	-11474
▁backst	-11475
▁Princeton	-11476
▁Pros	-11477
▁Dennis	-11478
▁butter	-11479
▁faculty	-11480
▁attraction	-11481
lem	-11482
▁lib	-11483
ritic	-11484
ribution	-11485
▁McKinley	-11486
omed	-11487
ework	-11488
found	-11489
▁Mult	-11490
▁romance	-11491
▁reporter	-11492
▁Cer	-11493
▁Hubb	-11494
▁Mann	-11495
▁flour	-11496
▁dropping	-11497
▁nevertheless	-11498
imony	-11499
music	-11500
▁Browns	-11501
▁witnesses	-11502
▁Kon	-11503
izard	-11504
onnie	-11505
▁blamed	-11506
▁Els	-11507
ulates	-11508
▁Serge	-11509
▁Tigers	-11510
▁conced	-11511
▁submer	-11512
leted	-11513
▁Cort	-11514
▁Rush	-11515
▁eagle	-11516
▁Organization	-11517
▁swept	-11518
▁Nation	-11519
▁fundamental	-11520
▁Dud	-11521
▁Helen	-11522
▁remote	-11523
▁companion	-11524
▁publicity	-11525
▁Leo	-11526
▁repris	-11527
▁stored	-11528
▁organic	-11529
▁positioned	-11530
▁MLB	-11531
▁drunk	-11532
▁Nathan	-11533
▁parking	-11534
▁whatever	-11535
▁submarines	-11536
▁spir	-11537
▁Brand	-11538
▁Historical	-11539
▁patri	-11540
▁Musical	-11541
▁retreated	-11542
▁mad	-11543
▁fant	-11544
▁annex	-11545
▁verses	-11546
▁stability	-11547
etta	-11548
▁Month	-11549
▁focusing	-11550
▁targeted	-11551
▁condemned	-11552
▁progressive	-11553
▁fortifications	-11554
▁1884	-11555
▁inHg	-11556
▁oxid	-11557
▁fract	-11558
▁shelter	-11559
▁NASA	-11560
▁Hubbard	-11561
▁Fly	-11562
ensis	-11563
▁Soph	-11564
▁Barcel	-11565
▁Glasgow	-11566
▁Talk	-11567
▁wrap	-11568
▁noise	-11569
▁irregular	-11570
▁corresponding	-11571
▁Salv	-11572
acular	-11573
▁Steam	-11574
▁flown	-11575
▁monit	-11576
▁gentle	-11577
▁Canucks	-11578
▁tent	-11579
▁Tests	-11580
▁curve	-11581
▁disbanded	-11582
▁resignation	-11583
▁Eld	-11584
▁asc	-11585
▁Father	-11586
▁fossils	-11587
iah	-11588
mates	-11589
▁Isle	-11590
▁lung	-11591
▁Political	-11592
▁Aub	-11593
▁confused	-11594
▁convince	-11595
▁detected	-11596
▁mail	-11597
▁winners	-11598
▁telephone	-11599
▁torpedoes	-11600
▁challenging	-11601
acht	-11602
▁Devil	-11603
▁Opera	-11604
▁magnetic	-11605
▁preceding	-11606
▁Isab	-11607
▁swing	-11608
▁cruise	-11609
▁rebounds	-11610
▁roster	-11611
▁machines	-11612
▁mentions	-11613
▁Coal	-11614
▁Fifth	-11615
▁Smack	-11616
▁quoted	-11617
▁Phillies	-11618
▁Kaz	-11619
▁Ghost	-11620
▁brings	-11621
▁Holland	-11622
▁Montana	-11623
▁rice	-11624
▁worse	-11625
▁studios	-11626
▁insurance	-11627
▁calculated	-11628
én	-11629
▁Stal	-11630
▁Solar	-11631
▁fault	-11632
▁melod	-11633
▁solely	-11634
▁concepts	-11635
▁directing	-11636
inated	-11637
▁Herbert	-11638
▁Theodore	-11639
▁creature	-11640
▁terminal	-11641
▁diversity	-11642
▁regiments	-11643
▁BCE	-11644
▁Kill	-11645
▁Percy	-11646
▁tourist	-11647
enz	-11648
mans	-11649
▁Nass	-11650
▁migr	-11651
▁Inside	-11652
▁darker	-11653
▁thanks	-11654
▁Millennium	-11655
auded	-11656
▁judicial	-11657
▁rotation	-11658
▁Westminster	-11659
▁nice	-11660
▁Morning	-11661
▁Oil	-11662
▁1877	-11663
▁Chem	-11664
▁Insp	-11665
ishops	-11666
usters	-11667
▁historically	-11668
▁Burg	-11669
▁hide	-11670
▁Tintin	-11671
▁favored	-11672
▁triumph	-11673
▁Adventure	-11674
▁151	-11675
icles	-11676
▁Celtic	-11677
▁AL	-11678
▁CEO	-11679
arded	-11680
▁examined	-11681
▁scholarship	-11682
oom	-11683
wing	-11684
▁aqu	-11685
▁jersey	-11686
▁Mercedes	-11687
▁103	-11688
▁Chang	-11689
ré	-11690
▁Hus	-11691
utter	-11692
▁bore	-11693
▁Denver	-11694
▁myself	-11695
bel	-11696
▁cha	-11697
▁1876	-11698
▁Vern	-11699
▁Basketball	-11700
▁Kin	-11701
▁Epis	-11702
onso	-11703
igger	-11704
overy	-11705
▁gear	-11706
▁zero	-11707
olia	-11708
▁Lud	-11709
amine	-11710
▁Cond	-11711
▁steadily	-11712
▁prompting	-11713
▁battlefield	-11714
▁138	-11715
hentic	-11716
▁Austro	-11717
▁config	-11718
▁wartime	-11719
▁acclaimed	-11720
iors	-11721
▁trio	-11722
▁Albany	-11723
▁messages	-11724
bie	-11725
▁sulf	-11726
▁balls	-11727
▁walked	-11728
▁rounded	-11729
gus	-11730
▁cotton	-11731
▁sharing	-11732
▁measuring	-11733
▁monastery	-11734
▁Poe	-11735
▁jew	-11736
▁spacecraft	-11737
▁reconstruction	-11738
ewise	-11739
▁Glou	-11740
▁Yard	-11741
▁Ronald	-11742
▁Strong	-11743
▁screens	-11744
▁Additional	-11745
▁af	-11746
▁connects	-11747
▁elevated	-11748
▁eligible	-11749
▁Bulgarian	-11750
▁Cany	-11751
▁agrees	-11752
▁guards	-11753
▁agencies	-11754
var	-11755
omon	-11756
▁ghost	-11757
▁gusts	-11758
▁Theater	-11759
cour	-11760
▁116	-11761
▁Rus	-11762
avian	-11763
▁troop	-11764
▁curved	-11765
▁themed	-11766
▁refuses	-11767
▁routing	-11768
▁decisive	-11769
▁commitment	-11770
▁distinction	-11771
hend	-11772
▁Tir	-11773
roscop	-11774
▁Carlos	-11775
▁Ottawa	-11776
▁presents	-11777
▁Pick	-11778
▁Athen	-11779
▁motif	-11780
▁Gothic	-11781
▁Nevada	-11782
▁Current	-11783
▁accomplished	-11784
qual	-11785
▁clouds	-11786
▁opined	-11787
▁radius	-11788
gary	-11789
lude	-11790
▁Aer	-11791
▁kids	-11792
▁hyper	-11793
▁postp	-11794
▁Rivers	-11795
▁revenge	-11796
▁conducting	-11797
▁Cou	-11798
▁Cox	-11799
▁Expl	-11800
▁masc	-11801
assing	-11802
▁cemetery	-11803
▁exterior	-11804
▁arguments	-11805
▁incidents	-11806
zes	-11807
atty	-11808
ishn	-11809
▁Sri	-11810
▁walks	-11811
▁physically	-11812
gon	-11813
▁Ce	-11814
▁Pokémon	-11815
▁Barcelona	-11816
▁Territory	-11817
▁proclaimed	-11818
▁EC	-11819
cell	-11820
▁linear	-11821
▁Michaels	-11822
▁creatures	-11823
▁kilometers	-11824
asp	-11825
uka	-11826
ampa	-11827
▁129	-11828
▁230	-11829
▁tap	-11830
▁echo	-11831
▁comed	-11832
▁flower	-11833
▁consequence	-11834
▁participating	-11835
ahl	-11836
▁1830	-11837
▁encomp	-11838
▁integrated	-11839
hall	-11840
▁122	-11841
lined	-11842
▁hosp	-11843
▁Squad	-11844
▁tough	-11845
▁134	-11846
▁loose	-11847
▁indirect	-11848
▁1875	-11849
▁finest	-11850
▁venues	-11851
▁Cardinals	-11852
opard	-11853
▁rebel	-11854
▁width	-11855
▁Paraly	-11856
▁centimet	-11857
inge	-11858
▁fo	-11859
▁Abra	-11860
▁Enix	-11861
lett	-11862
aults	-11863
▁Berm	-11864
omical	-11865
▁chann	-11866
istical	-11867
▁theaters	-11868
▁complimented	-11869
bach	-11870
flow	-11871
▁milk	-11872
▁Chuck	-11873
▁spell	-11874
▁intend	-11875
▁ritual	-11876
▁runner	-11877
▁properly	-11878
▁ceremonies	-11879
▁lesser	-11880
▁enhanced	-11881
▁demographic	-11882
ding	-11883
itars	-11884
▁Drake	-11885
▁Milan	-11886
▁spots	-11887
▁poster	-11888
▁prince	-11889
▁extends	-11890
▁Churchill	-11891
▁contribute	-11892
▁deliberately	-11893
▁lakes	-11894
▁scout	-11895
▁telesc	-11896
▁Parkway	-11897
▁reminisc	-11898
▁touc	-11899
▁Colin	-11900
▁bowled	-11901
▁mansion	-11902
▁peoples	-11903
▁Bris	-11904
acking	-11905
alling	-11906
▁varies	-11907
▁Raymond	-11908
▁preparations	-11909
eda	-11910
ettes	-11911
ighed	-11912
▁cosm	-11913
▁Foster	-11914
▁remake	-11915
▁borough	-11916
▁heavier	-11917
▁martial	-11918
▁Hok	-11919
▁1883	-11920
▁Derby	-11921
▁Metac	-11922
▁insuff	-11923
▁Esc	-11924
▁RBI	-11925
arthy	-11926
▁Mega	-11927
▁harsh	-11928
▁weakness	-11929
▁instructions	-11930
▁Barn	-11931
▁Emma	-11932
▁Wings	-11933
▁canon	-11934
▁contrad	-11935
▁Operations	-11936
▁southwestern	-11937
rians	-11938
▁Caes	-11939
season	-11940
▁onwards	-11941
▁Romanian	-11942
▁ministers	-11943
▁transformed	-11944
▁intermediate	-11945
unge	-11946
inter	-11947
▁Sor	-11948
Music	-11949
▁1881	-11950
▁Marl	-11951
▁Verm	-11952
▁updated	-11953
▁playable	-11954
▁possessed	-11955
▁continental	-11956
rob	-11957
▁Manuel	-11958
▁coaches	-11959
▁achievements	-11960
Down	-11961
▁Jose	-11962
▁hurt	-11963
▁rook	-11964
arians	-11965
▁Circle	-11966
▁SmackDown	-11967
▁sensitive	-11968
▁initiative	-11969
▁Occ	-11970
▁Pel	-11971
▁Ran	-11972
ashire	-11973
▁Sciences	-11974
▁airborne	-11975
▁prospect	-11976
▁logo	-11977
▁rider	-11978
▁outcome	-11979
nda	-11980
▁Led	-11981
▁Venice	-11982
▁propaganda	-11983
▁transmission	-11984
▁aided	-11985
▁Northwest	-11986
▁critically	-11987
▁homosexual	-11988
▁Jamaica	-11989
▁Middles	-11990
▁Computer	-11991
▁consideration	-11992
zed	-11993
▁yd	-11994
▁fru	-11995
▁Pack	-11996
▁optim	-11997
▁Hispan	-11998
▁allied	-11999
▁variable	-12000
▁consciousness	-12001
▁Bour	-12002
▁Brah	-12003
▁Belie	-12004
▁disabled	-12005
▁Richardson	-12006
▁vegetation	-12007
▁autobiography	-12008
▁Duc	-12009
▁RNA	-12010
herent	-12011
▁Paralymp	-12012
▁orchestral	-12013
▁CC	-12014
▁1869	-12015
▁Diamond	-12016
▁deposits	-12017
▁emerging	-12018
▁tourists	-12019
▁Rosen	-12020
▁Powell	-12021
▁estimate	-12022
▁depiction	-12023
▁exercises	-12024
▁SA	-12025
▁Nad	-12026
▁wit	-12027
▁Blair	-12028
▁spite	-12029
▁Duncan	-12030
▁monster	-12031
ironments	-12032
▁Lancashire	-12033
elin	-12034
▁moist	-12035
▁Calgary	-12036
▁Composition	-12037
▁unh	-12038
izers	-12039
▁Body	-12040
alties	-12041
▁landmark	-12042
▁Henderson	-12043
▁punishment	-12044
▁permanently	-12045
ubs	-12046
▁Unit	-12047
▁Arena	-12048
▁unanim	-12049
▁worker	-12050
▁routine	-12051
▁consistently	-12052
cont	-12053
▁Sad	-12054
▁1866	-12055
▁Hein	-12056
▁comprising	-12057
▁northeastern	-12058
▁Ga	-12059
acer	-12060
▁grid	-12061
▁latest	-12062
▁borders	-12063
▁doctrine	-12064
▁presidency	-12065
▁Ferdin	-12066
orf	-12067
aton	-12068
▁Brid	-12069
▁Delta	-12070
▁Floyd	-12071
▁Isles	-12072
▁Total	-12073
▁staged	-12074
▁Weather	-12075
▁assassination	-12076
▁Voy	-12077
▁summon	-12078
▁managing	-12079
▁delegates	-12080
▁searching	-12081
▁performers	-12082
▁journalists	-12083
▁subtropical	-12084
▁environments	-12085
vor	-12086
eries	-12087
▁ascend	-12088
▁payment	-12089
▁sailors	-12090
▁damaging	-12091
▁municipal	-12092
▁revealing	-12093
▁achievement	-12094
iffer	-12095
▁Alam	-12096
▁Speed	-12097
▁honors	-12098
▁belonging	-12099
lake	-12100
▁bin	-12101
works	-12102
▁witnessed	-12103
rang	-12104
▁Syn	-12105
▁mysterious	-12106
ni	-12107
▁marg	-12108
riages	-12109
▁honey	-12110
▁encourage	-12111
▁128	-12112
▁Mills	-12113
▁Using	-12114
▁input	-12115
▁psychiat	-12116
▁archaeological	-12117
▁priority	-12118
▁reluctant	-12119
▁complement	-12120
bu	-12121
▁dock	-12122
▁Canyon	-12123
▁Contem	-12124
▁Crawford	-12125
▁philosopher	-12126
▁epit	-12127
▁Range	-12128
▁Schol	-12129
▁gates	-12130
▁phenomenon	-12131
▁preventing	-12132
▁reh	-12133
▁amphib	-12134
▁Springs	-12135
▁Leicester	-12136
▁dispatched	-12137
▁unsuccessfully	-12138
ju	-12139
▁Seb	-12140
▁odd	-12141
▁marsh	-12142
▁Archae	-12143
▁Frances	-12144
Brien	-12145
▁Herm	-12146
▁Ellen	-12147
▁argue	-12148
▁enlar	-12149
atorial	-12150
▁silent	-12151
▁venture	-12152
▁actively	-12153
▁versus	-12154
▁belonged	-12155
▁hypothesis	-12156
▁Rav	-12157
▁Wis	-12158
▁pref	-12159
▁Rodrig	-12160
▁lengths	-12161
▁Veronica	-12162
▁coaching	-12163
▁switched	-12164
▁confer	-12165
assic	-12166
▁Grove	-12167
▁Palestine	-12168
▁750	-12169
▁finance	-12170
▁frigate	-12171
▁poverty	-12172
▁strange	-12173
GM	-12174
▁seal	-12175
▁anarch	-12176
▁ceiling	-12177
▁disputed	-12178
▁eighteen	-12179
▁awareness	-12180
▁corruption	-12181
▁executives	-12182
▁distinguish	-12183
▁124	-12184
▁Arc	-12185
actic	-12186
▁Planet	-12187
▁Crystal	-12188
▁listening	-12189
▁scientist	-12190
▁Hi	-12191
▁Tas	-12192
▁oct	-12193
▁Fischer	-12194
▁introduce	-12195
alia	-12196
anka	-12197
▁Nam	-12198
▁Tucker	-12199
▁Conserv	-12200
▁mechanics	-12201
▁directions	-12202
▁Headquarters	-12203
▁contributing	-12204
adows	-12205
▁1873	-12206
▁Medic	-12207
▁shaft	-12208
▁exploration	-12209
▁expectations	-12210
ikes	-12211
▁Punk	-12212
iating	-12213
▁Mut	-12214
▁ion	-12215
▁1882	-12216
▁Assist	-12217
▁Telegraph	-12218
▁procedure	-12219
▁Wel	-12220
ijing	-12221
▁1871	-12222
▁Carn	-12223
▁Region	-12224
▁adjust	-12225
▁rational	-12226
▁internationally	-12227
▁Fun	-12228
▁carved	-12229
▁whales	-12230
▁molecular	-12231
▁formations	-12232
pin	-12233
▁icon	-12234
▁naturally	-12235
▁surpassed	-12236
Tunes	-12237
▁Cloud	-12238
▁metals	-12239
▁objectives	-12240
atar	-12241
▁1867	-12242
▁Food	-12243
▁gest	-12244
▁mbar	-12245
▁vamp	-12246
▁Films	-12247
▁guitars	-12248
▁leagues	-12249
▁mystery	-12250
▁Flanders	-12251
▁advocated	-12252
▁improving	-12253
▁root	-12254
rington	-12255
▁Truman	-12256
▁saving	-12257
abad	-12258
rium	-12259
▁intr	-12260
▁tribut	-12261
▁desired	-12262
▁É	-12263
eches	-12264
odied	-12265
▁Marqu	-12266
▁sheet	-12267
▁privile	-12268
▁shipped	-12269
chi	-12270
ogg	-12271
▁plum	-12272
▁reop	-12273
istocr	-12274
▁accus	-12275
▁Kepler	-12276
▁Commons	-12277
▁submerged	-12278
▁dimensional	-12279
usty	-12280
▁abst	-12281
▁pseud	-12282
▁Intellig	-12283
▁abundant	-12284
▁discussing	-12285
▁processing	-12286
vik	-12287
▁requirement	-12288
▁overwhelming	-12289
▁remind	-12290
▁staying	-12291
core	-12292
▁Seas	-12293
▁tasks	-12294
▁temples	-12295
▁acceptance	-12296
olan	-12297
▁Kil	-12298
▁1878	-12299
▁Pine	-12300
▁convert	-12301
▁crucial	-12302
▁Mile	-12303
erness	-12304
▁cubic	-12305
▁reson	-12306
▁unrel	-12307
▁Dudley	-12308
▁Standard	-12309
▁associate	-12310
▁horsepower	-12311
▁UB	-12312
nery	-12313
▁Alt	-12314
ierra	-12315
▁mant	-12316
▁Deputy	-12317
▁Beijing	-12318
▁Why	-12319
asaki	-12320
▁Shin	-12321
angered	-12322
▁partners	-12323
zig	-12324
▁True	-12325
▁Watson	-12326
▁Masters	-12327
▁explored	-12328
chw	-12329
asia	-12330
▁Anat	-12331
▁estates	-12332
▁comprised	-12333
▁Ply	-12334
▁nervous	-12335
▁McCarthy	-12336
▁blockade	-12337
▁refugees	-12338
▁speculated	-12339
umi	-12340
usive	-12341
▁dive	-12342
▁genes	-12343
▁Desert	-12344
▁Commerc	-12345
▁channels	-12346
▁keyboard	-12347
▁opinions	-12348
▁composers	-12349
gor	-12350
▁liv	-12351
▁cameo	-12352
▁Newman	-12353
▁Trinity	-12354
▁authentic	-12355
▁collecting	-12356
rews	-12357
▁Bea	-12358
asses	-12359
▁Adela	-12360
▁adequ	-12361
amation	-12362
▁resemble	-12363
▁fragments	-12364
▁NA	-12365
appa	-12366
▁Exped	-12367
▁loaded	-12368
▁navigation	-12369
▁eleph	-12370
▁suffer	-12371
isations	-12372
▁averaged	-12373
▁undertook	-12374
suing	-12375
▁Gibson	-12376
▁iTunes	-12377
▁immigrants	-12378
eded	-12379
▁Luftw	-12380
▁CA	-12381
▁jaw	-12382
▁habitats	-12383
▁turbines	-12384
▁percussion	-12385
▁pump	-12386
▁Professional	-12387
▁137	-12388
immer	-12389
▁seeds	-12390
▁Guadal	-12391
▁compromise	-12392
kh	-12393
lex	-12394
▁Raid	-12395
▁rushed	-12396
▁republic	-12397
▁complaints	-12398
▁manufactured	-12399
DA	-12400
▁202	-12401
utely	-12402
thlete	-12403
▁whale	-12404
▁assets	-12405
▁genera	-12406
▁posthum	-12407
rehensive	-12408
▁Clif	-12409
▁Mail	-12410
▁ants	-12411
▁Alpha	-12412
▁Culture	-12413
▁homeless	-12414
▁networks	-12415
arus	-12416
▁craf	-12417
▁Eagle	-12418
▁Malay	-12419
▁photos	-12420
▁ov	-12421
▁Aqu	-12422
▁haz	-12423
▁discour	-12424
▁manages	-12425
▁consequences	-12426
▁RIA	-12427
▁Aaron	-12428
▁Meyer	-12429
▁bench	-12430
▁femin	-12431
▁faction	-12432
▁coastline	-12433
▁Metacritic	-12434
▁underwater	-12435
▁Surv	-12436
▁bars	-12437
▁gauge	-12438
▁ensuing	-12439
▁absolute	-12440
▁dissolved	-12441
▁Wellington	-12442
▁psychological	-12443
RS	-12444
▁Ib	-12445
▁Berg	-12446
▁Hass	-12447
▁Angle	-12448
▁Colomb	-12449
▁symbols	-12450
▁eruption	-12451
▁reconstruct	-12452
ilogy	-12453
▁lesb	-12454
ulture	-12455
▁Mobile	-12456
▁fabric	-12457
▁honorary	-12458
▁Luftwaffe	-12459
▁Rif	-12460
▁Tib	-12461
▁repet	-12462
▁stair	-12463
▁Luther	-12464
▁Bermuda	-12465
boat	-12466
▁Syl	-12467
▁ineff	-12468
▁Baptist	-12469
▁Shelley	-12470
▁lengthy	-12471
▁consensus	-12472
▁Trav	-12473
▁Vlad	-12474
▁Appro	-12475
▁Psych	-12476
▁relied	-12477
▁ultimate	-12478
rection	-12479
▁lemurs	-12480
▁variant	-12481
▁VH	-12482
▁Mak	-12483
▁sic	-12484
▁adds	-12485
▁cave	-12486
▁loyalty	-12487
▁SH	-12488
▁Bass	-12489
employ	-12490
▁Method	-12491
▁Monroe	-12492
ographed	-12493
▁singers	-12494
▁aristocr	-12495
oves	-12496
▁fears	-12497
▁summar	-12498
▁signals	-12499
iggins	-12500
▁improv	-12501
▁Monster	-12502
▁landings	-12503
▁reserves	-12504
▁unveiled	-12505
aba	-12506
amped	-12507
▁Want	-12508
isting	-12509
mother	-12510
▁eldest	-12511
▁intact	-12512
▁phosph	-12513
▁qualities	-12514
▁1872	-12515
▁fraud	-12516
▁assessment	-12517
▁disappoint	-12518
ilera	-12519
▁1868	-12520
▁Selena	-12521
▁Machine	-12522
▁Aguilera	-12523
▁teachers	-12524
▁Notable	-12525
▁contempor	-12526
inqu	-12527
▁RPG	-12528
▁Mick	-12529
▁Timber	-12530
▁doctors	-12531
▁defenses	-12532
▁ambassador	-12533
orig	-12534
▁Otto	-12535
▁unre	-12536
▁flesh	-12537
▁rocket	-12538
▁millions	-12539
▁Engineering	-12540
▁interactions	-12541
▁battlecruisers	-12542
avil	-12543
▁buff	-12544
▁Urban	-12545
▁harvest	-12546
▁emotions	-12547
▁spectators	-12548
▁Cut	-12549
▁Mull	-12550
▁Various	-12551
▁delight	-12552
▁grossed	-12553
▁printing	-12554
▁literally	-12555
child	-12556
▁brut	-12557
▁duck	-12558
▁Choice	-12559
▁Wolver	-12560
▁tradem	-12561
▁pounder	-12562
▁comparing	-12563
▁Henri	-12564
▁owing	-12565
▁twentieth	-12566
isk	-12567
▁amid	-12568
alysis	-12569
▁essay	-12570
▁anthem	-12571
▁lifted	-12572
▁weighed	-12573
▁costumes	-12574
▁songwriting	-12575
▁Marx	-12576
▁clip	-12577
▁sear	-12578
▁Flames	-12579
▁enormous	-12580
rays	-12581
▁Woods	-12582
▁Female	-12583
▁Cabinet	-12584
▁Pon	-12585
grade	-12586
licted	-12587
▁Ellis	-12588
▁engaging	-12589
▁explosive	-12590
ipping	-12591
through	-12592
▁Dakota	-12593
▁bacteria	-12594
unar	-12595
▁dealt	-12596
▁trips	-12597
▁batsman	-12598
▁revived	-12599
▁intelligent	-12600
imity	-12601
▁rally	-12602
▁patrols	-12603
▁appealed	-12604
▁instructed	-12605
▁Renaissance	-12606
▁politically	-12607
otypes	-12608
igrated	-12609
▁stabil	-12610
▁Genesis	-12611
▁insufficient	-12612
▁Hil	-12613
▁Leigh	-12614
▁Stage	-12615
▁deals	-12616
▁MVP	-12617
endar	-12618
▁strings	-12619
▁relating	-12620
▁tensions	-12621
▁Expedition	-12622
▁instrumentation	-12623
GB	-12624
▁cro	-12625
▁Money	-12626
▁telev	-12627
▁reader	-12628
▁stroke	-12629
▁Newport	-12630
▁Soviets	-12631
▁enrolled	-12632
stown	-12633
▁stom	-12634
▁interf	-12635
▁suited	-12636
▁graphic	-12637
▁Chandler	-12638
▁diseases	-12639
▁horizontal	-12640
▁cats	-12641
monton	-12642
▁Maxwell	-12643
▁Phillips	-12644
▁WWF	-12645
▁raw	-12646
▁ups	-12647
▁Plat	-12648
▁metall	-12649
▁Adelaide	-12650
▁hurricanes	-12651
▁Fa	-12652
▁sin	-12653
▁Curtis	-12654
▁Geoffrey	-12655
▁vocalist	-12656
iki	-12657
omys	-12658
▁Riley	-12659
▁Heaven	-12660
▁bitter	-12661
▁Barrett	-12662
▁referee	-12663
keley	-12664
▁Nept	-12665
▁widow	-12666
▁slower	-12667
BO	-12668
rip	-12669
▁anx	-12670
▁Cool	-12671
▁Butler	-12672
▁termed	-12673
▁chapters	-12674
▁incomple	-12675
▁subordin	-12676
▁reminiscent	-12677
orge	-12678
▁Chan	-12679
▁Hanc	-12680
▁perf	-12681
▁Wrest	-12682
▁Ferdinand	-12683
▁exhibited	-12684
▁intersections	-12685
iary	-12686
▁digit	-12687
▁Surrey	-12688
▁Knights	-12689
▁missile	-12690
▁mushroom	-12691
▁allegations	-12692
▁declaration	-12693
ido	-12694
anus	-12695
arma	-12696
▁clan	-12697
utonium	-12698
▁Therefore	-12699
auna	-12700
▁Essex	-12701
▁wishes	-12702
▁extraordin	-12703
ugs	-12704
ouch	-12705
▁etc	-12706
▁counsel	-12707
▁involve	-12708
▁mistake	-12709
▁overcome	-12710
▁discipline	-12711
opol	-12712
▁Poll	-12713
▁hier	-12714
▁incred	-12715
▁tactical	-12716
▁mathematics	-12717
ulk	-12718
otto	-12719
▁Abraham	-12720
▁Capital	-12721
▁Spencer	-12722
▁Plymouth	-12723
▁disliked	-12724
RC	-12725
aku	-12726
▁Madrid	-12727
▁Romans	-12728
▁GameSpot	-12729
▁cultures	-12730
▁sacrifice	-12731
eta	-12732
▁Fellow	-12733
▁gallery	-12734
cht	-12735
▁shirt	-12736
▁Combat	-12737
▁Prison	-12738
▁athletic	-12739
▁quantities	-12740
▁interference	-12741
▁Blake	-12742
▁joins	-12743
▁Gonz	-12744
▁Lore	-12745
bery	-12746
▁hunt	-12747
▁subd	-12748
▁modest	-12749
▁Movement	-12750
▁proceeds	-12751
▁thickness	-12752
▁CM	-12753
edar	-12754
▁Nak	-12755
▁expense	-12756
▁transit	-12757
▁syndrome	-12758
ebe	-12759
oric	-12760
▁Fur	-12761
▁Burger	-12762
▁Marcus	-12763
elia	-12764
▁123	-12765
▁Kerr	-12766
▁Bosnia	-12767
▁fights	-12768
▁caliber	-12769
▁circles	-12770
▁Resident	-12771
▁nicknamed	-12772
ht	-12773
yc	-12774
atem	-12775
▁gam	-12776
▁Sche	-12777
▁supporter	-12778
▁Contemporary	-12779
uits	-12780
▁Lamb	-12781
▁Adrian	-12782
▁Screen	-12783
▁Daniels	-12784
▁Hancock	-12785
▁imported	-12786
▁machinery	-12787
▁migration	-12788
▁assign	-12789
▁nomine	-12790
▁panels	-12791
▁spores	-12792
▁Brigadier	-12793
▁Relations	-12794
▁locomotive	-12795
▁interviewed	-12796
dam	-12797
▁141	-12798
heads	-12799
▁rifle	-12800
▁repaired	-12801
CO	-12802
▁Come	-12803
▁Spit	-12804
▁Right	-12805
▁fatal	-12806
▁gaming	-12807
▁washed	-12808
▁Aviation	-12809
▁frog	-12810
▁Florence	-12811
▁resur	-12812
▁custody	-12813
▁commentators	-12814
▁fare	-12815
▁hung	-12816
▁Tales	-12817
▁Fergus	-12818
▁bankrupt	-12819
▁shopping	-12820
▁molecules	-12821
▁Hond	-12822
▁Shan	-12823
▁joke	-12824
▁unaware	-12825
▁proximity	-12826
▁Publishing	-12827
iden	-12828
▁fluid	-12829
▁Baldwin	-12830
▁continent	-12831
▁Rah	-12832
▁Jeremy	-12833
▁finger	-12834
▁Kes	-12835
▁Garc	-12836
▁currency	-12837
▁Admiralty	-12838
▁mes	-12839
▁shar	-12840
▁weld	-12841
otilla	-12842
▁Heath	-12843
igo	-12844
cock	-12845
imer	-12846
pect	-12847
urers	-12848
kinson	-12849
▁Nobel	-12850
▁Norse	-12851
▁Usher	-12852
▁Vienna	-12853
▁curves	-12854
▁Reading	-12855
▁Agricult	-12856
▁redesign	-12857
▁pronounced	-12858
yan	-12859
▁Dj	-12860
▁NL	-12861
▁fir	-12862
▁Hergé	-12863
▁Manning	-12864
▁Preston	-12865
▁Arkansas	-12866
▁Jennifer	-12867
▁Ltd	-12868
▁Drum	-12869
▁allocated	-12870
olith	-12871
▁beer	-12872
▁Flood	-12873
▁Metal	-12874
▁Contin	-12875
▁Tasman	-12876
▁Twenty	-12877
▁Article	-12878
▁Romania	-12879
▁acquire	-12880
▁rulers	-12881
▁Banksia	-12882
▁knowing	-12883
▁contested	-12884
▁separately	-12885
▁successive	-12886
▁View	-12887
▁relay	-12888
athetic	-12889
▁floors	-12890
▁Stories	-12891
▁undergo	-12892
agi	-12893
▁puzz	-12894
itects	-12895
▁betray	-12896
▁demanding	-12897
istle	-12898
▁reef	-12899
▁aviation	-12900
▁memories	-12901
▁populated	-12902
urbs	-12903
cious	-12904
▁Lead	-12905
▁Leban	-12906
▁hatch	-12907
▁woods	-12908
▁McDonald	-12909
xide	-12910
▁Mom	-12911
elfth	-12912
▁hect	-12913
▁maneuver	-12914
▁Architect	-12915
▁gathering	-12916
▁discussions	-12917
▁preliminary	-12918
nal	-12919
rint	-12920
ungle	-12921
▁1879	-12922
▁Sans	-12923
▁Wool	-12924
▁riot	-12925
▁disgu	-12926
agons	-12927
▁funk	-12928
▁publish	-12929
▁northwestern	-12930
▁Kem	-12931
▁mim	-12932
▁Brew	-12933
▁Minogue	-12934
▁Newfound	-12935
▁comparable	-12936
▁interrupted	-12937
▁zones	-12938
▁scrapped	-12939
▁MC	-12940
▁cylinder	-12941
▁regardless	-12942
▁JG	-12943
alid	-12944
▁Pent	-12945
▁bills	-12946
▁farms	-12947
▁proud	-12948
▁McCain	-12949
▁screening	-12950
▁Electronic	-12951
▁photographer	-12952
star	-12953
▁Idol	-12954
▁dawn	-12955
▁sect	-12956
icular	-12957
▁Bowie	-12958
▁Orthodox	-12959
▁demonstrate	-12960
▁Chin	-12961
▁Chase	-12962
▁cease	-12963
▁Skinner	-12964
▁advances	-12965
▁discontinued	-12966
yd	-12967
esses	-12968
▁Bengal	-12969
▁damages	-12970
▁editing	-12971
▁Allmusic	-12972
▁Hawaiian	-12973
▁massacre	-12974
▁installation	-12975
lings	-12976
▁tourism	-12977
▁nineteenth	-12978
▁Adri	-12979
▁golf	-12980
▁chlor	-12981
▁paved	-12982
▁dynamic	-12983
▁Edmonton	-12984
▁editorial	-12985
eward	-12986
▁Capitol	-12987
▁Lie	-12988
▁ally	-12989
▁halted	-12990
▁Character	-12991
▁Wa	-12992
▁bol	-12993
▁tong	-12994
ashing	-12995
▁sporting	-12996
▁Lancaster	-12997
▁Industrial	-12998
arted	-12999
▁Tall	-13000
▁Sponge	-13001
▁cylind	-13002
▁subsidi	-13003
▁Newfoundland	-13004
wind	-13005
osity	-13006
▁Perth	-13007
▁gravity	-13008
▁licensed	-13009
▁regained	-13010
▁Task	-13011
▁Single	-13012
▁therapy	-13013
▁uprising	-13014
▁seemingly	-13015
▁neighbouring	-13016
nut	-13017
▁Esp	-13018
▁Shar	-13019
▁Suff	-13020
▁chord	-13021
▁subsc	-13022
istence	-13023
▁harbor	-13024
▁subtle	-13025
▁sew	-13026
▁Wald	-13027
▁opted	-13028
▁Senior	-13029
▁unrest	-13030
▁crowned	-13031
ologically	-13032
▁projected	-13033
▁Suz	-13034
▁busy	-13035
▁Turks	-13036
▁grain	-13037
▁citizen	-13038
▁disputes	-13039
▁contracted	-13040
▁protecting	-13041
▁administered	-13042
iang	-13043
▁Equ	-13044
▁Fab	-13045
▁Shadow	-13046
▁creates	-13047
▁lessons	-13048
▁descended	-13049
aston	-13050
stand	-13051
▁Ports	-13052
▁Beautiful	-13053
▁deployment	-13054
▁functional	-13055
▁instruction	-13056
▁anger	-13057
▁masses	-13058
▁openly	-13059
▁descendants	-13060
urse	-13061
▁trem	-13062
▁barely	-13063
▁Circuit	-13064
▁privately	-13065
lia	-13066
wig	-13067
▁Hat	-13068
▁lip	-13069
▁Winc	-13070
▁regist	-13071
▁coloured	-13072
▁accomplish	-13073
ör	-13074
▁Motor	-13075
▁totally	-13076
▁captivity	-13077
▁cooperation	-13078
pit	-13079
▁Bent	-13080
▁Senators	-13081
▁northwestward	-13082
ovsky	-13083
▁overh	-13084
▁deeper	-13085
▁honest	-13086
▁perpet	-13087
▁symmet	-13088
▁jumping	-13089
▁volcano	-13090
▁Buddhist	-13091
▁corridor	-13092
ramid	-13093
▁atmospheric	-13094
▁Mol	-13095
onnell	-13096
▁Janet	-13097
▁Logan	-13098
▁fluor	-13099
▁Mounted	-13100
▁farming	-13101
▁outdoor	-13102
▁Caroline	-13103
▁generals	-13104
▁collision	-13105
▁Laf	-13106
▁ibn	-13107
anian	-13108
▁misc	-13109
aceous	-13110
▁Louise	-13111
▁planes	-13112
▁rapper	-13113
▁steady	-13114
▁delegation	-13115
▁necessarily	-13116
▁Gaz	-13117
▁lux	-13118
▁file	-13119
▁chess	-13120
▁lacks	-13121
▁delays	-13122
▁orient	-13123
▁invented	-13124
▁ambitious	-13125
rosse	-13126
▁gamb	-13127
▁nests	-13128
▁Motion	-13129
▁Adventures	-13130
front	-13131
guard	-13132
isphere	-13133
▁coalition	-13134
▁Protection	-13135
ikh	-13136
blem	-13137
▁Tiger	-13138
▁reiss	-13139
▁suburb	-13140
▁conting	-13141
▁Generation	-13142
▁gran	-13143
ervers	-13144
▁eject	-13145
imir	-13146
▁quit	-13147
▁greet	-13148
▁Sierra	-13149
▁mutual	-13150
▁Nashville	-13151
▁developer	-13152
▁Chop	-13153
▁Crom	-13154
▁Make	-13155
▁cream	-13156
achelor	-13157
▁fatalities	-13158
▁Productions	-13159
icity	-13160
▁Trad	-13161
▁roller	-13162
▁tracking	-13163
▁declaring	-13164
▁excessive	-13165
how	-13166
▁Bot	-13167
▁Put	-13168
▁joy	-13169
▁oak	-13170
▁Bear	-13171
▁jokes	-13172
▁membr	-13173
tage	-13174
▁Lynch	-13175
▁Store	-13176
▁presum	-13177
▁trophy	-13178
▁270	-13179
▁Sep	-13180
▁Buch	-13181
▁AllMusic	-13182
rez	-13183
▁teammates	-13184
issa	-13185
▁Emily	-13186
▁Plaza	-13187
▁Online	-13188
▁Palmer	-13189
▁Commissioner	-13190
zac	-13191
▁146	-13192
▁Hous	-13193
▁lava	-13194
▁Shank	-13195
▁copyr	-13196
▁Observ	-13197
▁Airborne	-13198
▁prohibited	-13199
▁Hoff	-13200
▁calm	-13201
▁shops	-13202
▁divine	-13203
▁inject	-13204
▁Bri	-13205
▁Kens	-13206
▁keen	-13207
▁Apart	-13208
graduate	-13209
▁Parachute	-13210
▁struggling	-13211
▁Num	-13212
▁sixty	-13213
▁unemploy	-13214
▁recognize	-13215
▁Consequently	-13216
PS	-13217
lend	-13218
▁Tab	-13219
▁Spin	-13220
▁decomp	-13221
▁honours	-13222
▁kitchen	-13223
▁operator	-13224
▁Paramount	-13225
▁aggregate	-13226
▁pregnancy	-13227
isans	-13228
ficial	-13229
▁gains	-13230
▁Damage	-13231
▁Harper	-13232
▁shadow	-13233
▁Garfield	-13234
▁realizes	-13235
eria	-13236
oths	-13237
▁Kub	-13238
▁puts	-13239
▁Busch	-13240
▁Drama	-13241
▁Nothing	-13242
▁generate	-13243
▁eliminate	-13244
▁Sib	-13245
entric	-13246
▁cabin	-13247
▁Maurice	-13248
▁Maxim	-13249
▁ironcl	-13250
ogs	-13251
hand	-13252
▁Yet	-13253
opsis	-13254
▁Chall	-13255
▁backup	-13256
▁Chairman	-13257
▁storylines	-13258
anto	-13259
▁Bod	-13260
▁Devon	-13261
▁edges	-13262
▁trigg	-13263
▁findings	-13264
▁disappear	-13265
▁merchants	-13266
nolds	-13267
▁Hait	-13268
elfare	-13269
▁operas	-13270
▁attractive	-13271
▁dug	-13272
▁nam	-13273
▁Pall	-13274
lessly	-13275
▁draws	-13276
▁incomplete	-13277
▁acquisition	-13278
▁.3	-13279
▁Pi	-13280
▁Jen	-13281
▁pine	-13282
▁reserved	-13283
▁unusually	-13284
oning	-13285
ayette	-13286
▁arbit	-13287
▁Regard	-13288
▁Griffin	-13289
▁auction	-13290
▁surfaces	-13291
▁memorable	-13292
edge	-13293
▁1874	-13294
▁Rams	-13295
▁metap	-13296
▁Arctic	-13297
▁Chancellor	-13298
▁remarkable	-13299
Pa	-13300
▁FM	-13301
▁149	-13302
▁1848	-13303
▁Myst	-13304
▁Glass	-13305
▁ridic	-13306
letcher	-13307
▁Panama	-13308
▁experts	-13309
▁streams	-13310
▁reversed	-13311
▁conjunction	-13312
▁proceedings	-13313
▁Cann	-13314
▁unpop	-13315
▁caution	-13316
▁package	-13317
▁scenario	-13318
▁adaptations	-13319
▁CN	-13320
▁Mk	-13321
yers	-13322
▁Large	-13323
▁Franco	-13324
▁decomm	-13325
▁grants	-13326
▁electro	-13327
▁perfectly	-13328
▁ruins	-13329
legiate	-13330
▁Survey	-13331
▁sketch	-13332
▁chances	-13333
ripp	-13334
▁hur	-13335
▁freed	-13336
▁Finnish	-13337
▁impress	-13338
▁secular	-13339
▁substance	-13340
▁restaurants	-13341
▁keeps	-13342
▁minim	-13343
▁tennis	-13344
▁metropolitan	-13345
▁sufficiently	-13346
very	-13347
▁Starting	-13348
▁motorway	-13349
abet	-13350
list	-13351
raid	-13352
▁Moz	-13353
▁Gust	-13354
▁clay	-13355
▁princ	-13356
▁SpongeB	-13357
▁lobby	-13358
ophical	-13359
▁Windsor	-13360
▁Michelle	-13361
▁Bott	-13362
▁Holmes	-13363
▁pedest	-13364
▁Armenia	-13365
▁worried	-13366
▁veterans	-13367
▁allegedly	-13368
▁lifestyle	-13369
AL	-13370
▁Ky	-13371
ndum	-13372
▁Carr	-13373
▁soap	-13374
▁Serbs	-13375
▁modes	-13376
▁resort	-13377
▁Jacques	-13378
▁Junction	-13379
▁Lindwall	-13380
▁assessed	-13381
▁detached	-13382
▁floating	-13383
▁emphasized	-13384
▁shed	-13385
▁transc	-13386
▁transp	-13387
lew	-13388
▁.2	-13389
▁Heat	-13390
▁pray	-13391
▁Number	-13392
▁Tunnel	-13393
▁diving	-13394
▁tunnels	-13395
▁progression	-13396
▁topic	-13397
▁Formula	-13398
▁festivals	-13399
▁Soft	-13400
▁Trip	-13401
taining	-13402
▁Arabic	-13403
▁hiding	-13404
▁Koreans	-13405
▁demonstration	-13406
▁210	-13407
▁Jur	-13408
▁Too	-13409
▁spo	-13410
▁tum	-13411
ushes	-13412
▁dors	-13413
▁muzzle	-13414
▁nights	-13415
▁Solomon	-13416
▁erosion	-13417
▁loading	-13418
▁manifest	-13419
▁incorporates	-13420
aurus	-13421
▁Edwin	-13422
uxili	-13423
▁Bron	-13424
▁Guatem	-13425
▁Advance	-13426
▁climbing	-13427
▁speeches	-13428
▁plutonium	-13429
ho	-13430
agic	-13431
▁Starr	-13432
▁monitor	-13433
rozen	-13434
▁Doug	-13435
▁Phant	-13436
▁Randy	-13437
▁Monday	-13438
▁Stanford	-13439
▁attachment	-13440
▁Hip	-13441
▁rays	-13442
olades	-13443
▁escal	-13444
rolling	-13445
▁Claire	-13446
▁floods	-13447
▁Berkeley	-13448
▁supplement	-13449
ocene	-13450
▁Dian	-13451
▁Valent	-13452
inguished	-13453
▁Superman	-13454
▁Spy	-13455
▁Booth	-13456
▁errors	-13457
▁amendment	-13458
▁diagnosed	-13459
bus	-13460
▁trap	-13461
▁Gerald	-13462
▁ranged	-13463
▁tended	-13464
▁Presley	-13465
▁centres	-13466
▁upgrade	-13467
▁internet	-13468
▁appreciated	-13469
▁investigated	-13470
IS	-13471
pes	-13472
pow	-13473
▁flee	-13474
▁overd	-13475
▁param	-13476
▁Martha	-13477
▁overth	-13478
▁pleasure	-13479
▁prosecut	-13480
▁modifications	-13481
enne	-13482
orus	-13483
▁Spiel	-13484
▁Reform	-13485
▁consul	-13486
iability	-13487
▁warrant	-13488
▁introducing	-13489
irk	-13490
▁EU	-13491
ivic	-13492
umar	-13493
▁sty	-13494
▁Bast	-13495
▁Luis	-13496
▁naked	-13497
▁Guards	-13498
▁Legion	-13499
▁merger	-13500
▁counteratt	-13501
ère	-13502
▁Gy	-13503
▁Mam	-13504
▁haul	-13505
▁Pierce	-13506
▁cameras	-13507
▁consent	-13508
▁inhabited	-13509
▁unst	-13510
▁Cuban	-13511
▁mobil	-13512
▁lineup	-13513
▁generations	-13514
iti	-13515
▁144	-13516
▁ease	-13517
▁crust	-13518
▁notion	-13519
▁securing	-13520
▁comfortable	-13521
pat	-13522
ugu	-13523
▁Sold	-13524
official	-13525
▁Gabriel	-13526
▁Jennings	-13527
▁Rhodesia	-13528
▁Sue	-13529
▁....	-13530
penter	-13531
▁Recre	-13532
▁hamlet	-13533
▁nearest	-13534
▁Augustus	-13535
▁Bulgaria	-13536
▁confined	-13537
▁thoughts	-13538
▁Broadcasting	-13539
▁Yok	-13540
▁1851	-13541
▁Manor	-13542
▁Finals	-13543
▁enable	-13544
▁incons	-13545
▁stance	-13546
▁thrust	-13547
▁qualify	-13548
▁Soundtrack	-13549
▁strengthening	-13550
ema	-13551
otus	-13552
ylum	-13553
▁Aur	-13554
▁metab	-13555
▁synth	-13556
▁organs	-13557
▁Chapman	-13558
imination	-13559
▁Commercial	-13560
iche	-13561
▁fox	-13562
▁Delhi	-13563
▁bonds	-13564
▁inver	-13565
▁reads	-13566
▁pushing	-13567
▁maintains	-13568
▁Sr	-13569
▁Wake	-13570
▁Irving	-13571
▁Turnpike	-13572
mate	-13573
birds	-13574
▁Hawk	-13575
▁item	-13576
▁electoral	-13577
di	-13578
ulu	-13579
▁Price	-13580
▁revel	-13581
▁Illust	-13582
▁Collect	-13583
▁Warwick	-13584
▁stripped	-13585
asi	-13586
▁Cec	-13587
raine	-13588
▁Anti	-13589
▁artif	-13590
overning	-13591
▁colleges	-13592
▁waterline	-13593
▁Gran	-13594
▁outs	-13595
▁muscle	-13596
▁doubles	-13597
▁speaker	-13598
nor	-13599
aude	-13600
▁Kiss	-13601
rators	-13602
▁embarr	-13603
▁elderly	-13604
▁SpongeBob	-13605
stad	-13606
▁Wid	-13607
▁Holl	-13608
▁butt	-13609
▁compat	-13610
▁monkey	-13611
▁Hopkins	-13612
▁grandson	-13613
▁graduating	-13614
tz	-13615
iop	-13616
▁Cos	-13617
▁ampl	-13618
houses	-13619
▁flags	-13620
▁Mirror	-13621
▁Jeffrey	-13622
▁Subsequently	-13623
▁Glenn	-13624
▁Hayes	-13625
▁monks	-13626
▁ensemble	-13627
▁enthusiastic	-13628
iots	-13629
▁Prepar	-13630
▁Things	-13631
bing	-13632
▁Marath	-13633
istically	-13634
erek	-13635
hero	-13636
ichi	-13637
atoes	-13638
ocaust	-13639
veloped	-13640
▁filter	-13641
▁preval	-13642
▁sacred	-13643
▁successes	-13644
▁legitimate	-13645
▁Berry	-13646
▁HM	-13647
▁Tyr	-13648
▁Sword	-13649
▁brigades	-13650
▁carefully	-13651
▁Kath	-13652
▁cere	-13653
▁Edgar	-13654
▁barrier	-13655
▁stepped	-13656
holm	-13657
odon	-13658
▁phyl	-13659
▁laying	-13660
▁layout	-13661
▁rookie	-13662
▁Borough	-13663
▁courage	-13664
▁escapes	-13665
▁Fletcher	-13666
▁entertaining	-13667
asse	-13668
mill	-13669
▁Schw	-13670
▁tool	-13671
▁Crime	-13672
▁Laura	-13673
▁Manager	-13674
▁Reviews	-13675
▁monthly	-13676
▁infected	-13677
▁sexually	-13678
▁Spielberg	-13679
▁incorporate	-13680
mel	-13681
inus	-13682
▁Rup	-13683
avour	-13684
▁Kenny	-13685
▁restr	-13686
▁witch	-13687
▁eleventh	-13688
▁exceeded	-13689
▁Southampton	-13690
▁compensation	-13691
▁Squ	-13692
▁ump	-13693
▁Ober	-13694
▁Belle	-13695
osystem	-13696
▁Sunder	-13697
▁wounds	-13698
▁exhaust	-13699
▁honored	-13700
▁darkness	-13701
anan	-13702
▁280	-13703
▁satir	-13704
▁Brandon	-13705
▁genuine	-13706
▁healthy	-13707
▁readily	-13708
▁frontier	-13709
▁promising	-13710
▁knock	-13711
▁schem	-13712
▁Patton	-13713
▁Saints	-13714
▁Pirates	-13715
▁defeats	-13716
▁definitely	-13717
nan	-13718
▁sus	-13719
enhower	-13720
▁pressed	-13721
▁consequently	-13722
▁Á	-13723
▁soci	-13724
▁Bangl	-13725
▁Bolton	-13726
▁mistaken	-13727
▁monarchy	-13728
▁invitation	-13729
▁ber	-13730
erals	-13731
▁Cave	-13732
▁rely	-13733
▁Venus	-13734
ountain	-13735
▁Global	-13736
len	-13737
▁Fac	-13738
rieved	-13739
▁drives	-13740
▁fusion	-13741
▁midnight	-13742
▁maneuvers	-13743
mat	-13744
▁NOK	-13745
▁Made	-13746
rified	-13747
▁Basin	-13748
▁Easter	-13749
▁slowed	-13750
▁missiles	-13751
isle	-13752
umni	-13753
▁coc	-13754
▁diary	-13755
▁thirds	-13756
▁spawned	-13757
▁fragment	-13758
▁Artillery	-13759
lesi	-13760
▁ESP	-13761
▁locate	-13762
▁pupils	-13763
▁Hendrix	-13764
▁reflects	-13765
▁Principal	-13766
▁concludes	-13767
▁sophistic	-13768
▁unpopular	-13769
▁IC	-13770
oshi	-13771
▁148	-13772
▁Lut	-13773
▁Prin	-13774
▁tram	-13775
▁Porter	-13776
▁submit	-13777
▁profits	-13778
▁employee	-13779
▁disappointment	-13780
▁identification	-13781
▁Pra	-13782
hurst	-13783
▁Goeb	-13784
▁bend	-13785
▁Crane	-13786
▁Rocky	-13787
▁Rugby	-13788
▁reper	-13789
▁Gardens	-13790
vo	-13791
cut	-13792
▁fib	-13793
▁Truth	-13794
▁Artist	-13795
▁Member	-13796
▁blacks	-13797
▁magical	-13798
▁negotiated	-13799
▁destination	-13800
▁inscription	-13801
▁measurements	-13802
▁corp	-13803
▁immun	-13804
▁constr	-13805
▁retros	-13806
▁convinc	-13807
▁exciting	-13808
▁Lightning	-13809
▁competitors	-13810
▁136	-13811
oints	-13812
▁Hess	-13813
▁refit	-13814
▁Leader	-13815
▁coffee	-13816
▁heroes	-13817
▁traits	-13818
▁dispers	-13819
▁celebrity	-13820
▁northbound	-13821
icus	-13822
imid	-13823
▁duet	-13824
▁mirror	-13825
▁Treasury	-13826
▁computers	-13827
▁Eisenhower	-13828
▁controlling	-13829
▁Rare	-13830
▁tide	-13831
▁fever	-13832
osphere	-13833
▁assume	-13834
▁consumed	-13835
mons	-13836
▁Lay	-13837
▁sel	-13838
▁Lakes	-13839
▁Stefani	-13840
▁Argentine	-13841
▁assignment	-13842
▁colonel	-13843
▁affecting	-13844
igon	-13845
▁McA	-13846
osely	-13847
▁Nebr	-13848
▁Warsaw	-13849
▁physician	-13850
ibal	-13851
oline	-13852
alogue	-13853
▁lined	-13854
▁posed	-13855
ictions	-13856
▁accuracy	-13857
▁deciding	-13858
▁automatic	-13859
▁testimony	-13860
ymn	-13861
▁Gas	-13862
canal	-13863
neath	-13864
▁AIDS	-13865
▁Lucy	-13866
▁Sebast	-13867
▁choosing	-13868
▁neighboring	-13869
▁predecessors	-13870
▁133	-13871
▁forts	-13872
▁Hammer	-13873
▁arcade	-13874
▁distances	-13875
▁struggles	-13876
▁evolutionary	-13877
VA	-13878
anz	-13879
▁Almost	-13880
▁Sussex	-13881
▁procedures	-13882
▁capabilities	-13883
lies	-13884
▁370	-13885
andin	-13886
▁Gone	-13887
▁Wals	-13888
▁Powers	-13889
▁topics	-13890
▁freight	-13891
▁Ferguson	-13892
Ne	-13893
▁sink	-13894
▁Rhode	-13895
▁Willis	-13896
tershire	-13897
▁unnamed	-13898
isor	-13899
▁jail	-13900
ophone	-13901
▁Britney	-13902
▁drainage	-13903
▁CG	-13904
omes	-13905
▁acids	-13906
▁wouldn	-13907
▁realize	-13908
▁Columbus	-13909
▁relevant	-13910
▁Guadalcanal	-13911
▁es	-13912
▁oral	-13913
▁besie	-13914
▁stomach	-13915
▁Reynolds	-13916
▁dorm	-13917
▁smart	-13918
▁Morton	-13919
▁regret	-13920
▁momentum	-13921
▁preceded	-13922
▁unt	-13923
▁lion	-13924
▁rush	-13925
▁fairy	-13926
▁SE	-13927
▁demon	-13928
▁spare	-13929
▁Castro	-13930
▁herald	-13931
▁Variety	-13932
▁Universe	-13933
▁volunteer	-13934
irs	-13935
ilia	-13936
uchi	-13937
▁Doc	-13938
▁abd	-13939
▁psy	-13940
adequ	-13941
olics	-13942
pling	-13943
changes	-13944
▁requests	-13945
▁illustrations	-13946
▁IU	-13947
irate	-13948
▁Fear	-13949
▁seiz	-13950
▁antiqu	-13951
▁choices	-13952
▁leather	-13953
▁hardware	-13954
▁respected	-13955
odia	-13956
▁Gam	-13957
▁Hyd	-13958
▁carn	-13959
▁Annie	-13960
▁blown	-13961
▁kicked	-13962
▁tribal	-13963
▁feminist	-13964
▁settings	-13965
▁suburban	-13966
▁Hutch	-13967
▁Places	-13968
▁Russians	-13969
▁advocate	-13970
▁nobility	-13971
▁Ess	-13972
uates	-13973
▁Rice	-13974
▁Citiz	-13975
▁Munich	-13976
▁enhance	-13977
▁Nebraska	-13978
▁speakers	-13979
▁warriors	-13980
▁dimensions	-13981
▁limitations	-13982
inite	-13983
▁bold	-13984
▁burst	-13985
▁Greeks	-13986
▁incorrect	-13987
zo	-13988
▁hin	-13989
▁Beyond	-13990
▁Calvin	-13991
▁bassist	-13992
▁teenage	-13993
rimination	-13994
▁Lithuania	-13995
▁governing	-13996
gs	-13997
▁Site	-13998
▁Hanna	-13999
▁anywhere	-14000
▁abolished	-14001
▁Vul	-14002
▁tea	-14003
▁Flag	-14004
writer	-14005
▁twelfth	-14006
▁resembles	-14007
▁SN	-14008
tegr	-14009
▁tab	-14010
▁toss	-14011
▁Rever	-14012
▁illeg	-14013
▁painter	-14014
▁suspect	-14015
▁wanting	-14016
▁endorsed	-14017
▁absolutely	-14018
▁referendum	-14019
▁underneath	-14020
▁enforcement	-14021
igu	-14022
▁Municip	-14023
▁conquered	-14024
RT	-14025
oop	-14026
▁ecl	-14027
▁vit	-14028
▁bread	-14029
versely	-14030
▁crystal	-14031
▁Intelligence	-14032
dict	-14033
▁Spect	-14034
▁Batter	-14035
▁Popular	-14036
▁precise	-14037
▁thriller	-14038
▁comprises	-14039
▁Lithuanian	-14040
dan	-14041
beit	-14042
▁lease	-14043
▁lemur	-14044
▁Eighth	-14045
▁repeat	-14046
▁accordance	-14047
▁nationally	-14048
▁congregation	-14049
post	-14050
archy	-14051
ocese	-14052
▁Stop	-14053
▁Ultimately	-14054
▁municipality	-14055
▁€	-14056
brook	-14057
▁Boyd	-14058
▁Dawn	-14059
▁ware	-14060
▁namely	-14061
▁extraordinary	-14062
▁AF	-14063
▁260	-14064
▁Franz	-14065
▁proven	-14066
▁Hammond	-14067
▁maturity	-14068
▁secretly	-14069
▁skeleton	-14070
DP	-14071
▁Cu	-14072
▁depr	-14073
isbury	-14074
▁Eugene	-14075
▁prayer	-14076
▁renown	-14077
▁commerce	-14078
▁Catholics	-14079
▁underlying	-14080
▁Distinguished	-14081
zi	-14082
quet	-14083
▁Bav	-14084
▁Rhys	-14085
▁Derek	-14086
▁presc	-14087
▁fortified	-14088
▁imprisonment	-14089
▁jam	-14090
▁que	-14091
▁nickel	-14092
▁142	-14093
lance	-14094
▁Mumb	-14095
▁Page	-14096
▁fees	-14097
▁Rather	-14098
▁extant	-14099
▁Quarter	-14100
▁Ps	-14101
▁1859	-14102
▁Ming	-14103
▁Style	-14104
▁dorsal	-14105
▁rumors	-14106
▁safely	-14107
▁innovative	-14108
▁specialized	-14109
iott	-14110
ovich	-14111
▁seize	-14112
▁coupled	-14113
▁Southeast	-14114
▁negotiate	-14115
▁extinction	-14116
ão	-14117
▁Lois	-14118
▁locked	-14119
▁customs	-14120
▁substantially	-14121
▁Yu	-14122
elic	-14123
▁Nab	-14124
▁Lear	-14125
▁wool	-14126
▁Britt	-14127
itating	-14128
▁plastic	-14129
▁totaled	-14130
▁Robertson	-14131
▁keyboards	-14132
▁aug	-14133
▁Gren	-14134
▁Roads	-14135
▁genius	-14136
▁scales	-14137
▁united	-14138
▁enacted	-14139
▁Ultimate	-14140
▁limestone	-14141
vae	-14142
cycl	-14143
soon	-14144
▁judgment	-14145
▁specialist	-14146
oub	-14147
ishi	-14148
▁Ost	-14149
ainted	-14150
▁Comic	-14151
▁Remix	-14152
▁Sport	-14153
▁gifts	-14154
▁scope	-14155
▁albeit	-14156
▁Associated	-14157
mitt	-14158
irmed	-14159
▁atoms	-14160
▁eaten	-14161
▁export	-14162
▁hanging	-14163
▁preview	-14164
▁retaining	-14165
▁conviction	-14166
▁subsidiary	-14167
▁millimetres	-14168
▁nationalist	-14169
ipel	-14170
usel	-14171
iolet	-14172
▁Hast	-14173
▁Blaine	-14174
▁Wander	-14175
▁chains	-14176
▁trademark	-14177
▁efficiency	-14178
jud	-14179
▁Shack	-14180
▁compact	-14181
▁copyright	-14182
▁hospitals	-14183
comm	-14184
▁Cant	-14185
▁Canber	-14186
▁rewrit	-14187
▁societies	-14188
neum	-14189
▁pian	-14190
▁runway	-14191
▁catalog	-14192
▁Taxonomy	-14193
▁pointing	-14194
▁Pun	-14195
▁fart	-14196
▁deriv	-14197
▁fitting	-14198
▁Sunderland	-14199
▁Was	-14200
▁1845	-14201
▁pige	-14202
▁Joyce	-14203
▁micro	-14204
▁patch	-14205
▁Fraser	-14206
▁inadequ	-14207
▁anat	-14208
▁Gross	-14209
▁array	-14210
▁realm	-14211
▁crowds	-14212
▁Outside	-14213
▁murders	-14214
▁investigations	-14215
▁139	-14216
abling	-14217
▁divide	-14218
▁sphere	-14219
▁throat	-14220
▁welcom	-14221
▁deceased	-14222
▁factions	-14223
▁designers	-14224
▁southbound	-14225
▁preservation	-14226
▁comprehensive	-14227
lides	-14228
▁Balk	-14229
▁Quinn	-14230
agonists	-14231
▁Wrestle	-14232
▁summary	-14233
▁Gameplay	-14234
▁Salisbury	-14235
▁Ned	-14236
▁sou	-14237
inely	-14238
▁Dart	-14239
▁axis	-14240
▁guided	-14241
▁Brighton	-14242
ED	-14243
▁pla	-14244
▁Joel	-14245
▁fake	-14246
▁garage	-14247
▁occupy	-14248
▁thinks	-14249
▁Scouting	-14250
▁achieving	-14251
▁introduces	-14252
▁perception	-14253
bage	-14254
▁rod	-14255
▁Fant	-14256
▁Reds	-14257
▁stunt	-14258
▁Double	-14259
▁Willie	-14260
▁sexuality	-14261
▁helicopters	-14262
▁Arms	-14263
▁Mine	-14264
▁bout	-14265
▁Jenna	-14266
▁Linda	-14267
▁Critic	-14268
▁inflicted	-14269
▁confronted	-14270
▁intercepted	-14271
onom	-14272
oton	-14273
ounce	-14274
▁1200	-14275
▁cliff	-14276
▁Lesser	-14277
▁domain	-14278
▁contrary	-14279
▁freshman	-14280
▁facts	-14281
▁Stalin	-14282
▁volunt	-14283
▁realised	-14284
▁servants	-14285
▁breakdown	-14286
▁Timberlake	-14287
▁‘	-14288
▁HIV	-14289
gence	-14290
▁RIAA	-14291
▁inex	-14292
▁merchand	-14293
▁Holocaust	-14294
▁Fan	-14295
▁Wed	-14296
▁rape	-14297
▁relax	-14298
▁dragon	-14299
▁inquiry	-14300
▁resolve	-14301
▁seventeen	-14302
▁highlights	-14303
▁Dry	-14304
▁Sed	-14305
▁vow	-14306
▁permit	-14307
▁athlete	-14308
▁tendency	-14309
▁Dominican	-14310
essa	-14311
▁Hig	-14312
outed	-14313
▁Axis	-14314
▁blank	-14315
▁Racing	-14316
▁infant	-14317
▁scorer	-14318
▁Arabian	-14319
apa	-14320
elest	-14321
▁Woll	-14322
▁alert	-14323
▁Buenos	-14324
▁Whitney	-14325
▁monsters	-14326
▁pitching	-14327
▁protective	-14328
▁prosecution	-14329
ovo	-14330
▁Exam	-14331
▁Swan	-14332
▁excited	-14333
▁effectiveness	-14334
adic	-14335
▁Dre	-14336
orters	-14337
▁Norton	-14338
▁Torres	-14339
▁tender	-14340
▁solutions	-14341
▁Portsmouth	-14342
▁availability	-14343
▁decommissioned	-14344
▁Shen	-14345
▁vacc	-14346
▁Karen	-14347
▁grace	-14348
▁mouse	-14349
▁admired	-14350
▁matched	-14351
▁contents	-14352
▁synthesis	-14353
▁Pred	-14354
▁dome	-14355
rically	-14356
▁Scotia	-14357
▁cement	-14358
▁pocket	-14359
▁rolling	-14360
▁drawings	-14361
gun	-14362
▁Von	-14363
▁amino	-14364
▁ballot	-14365
iji	-14366
▁Doll	-14367
aulted	-14368
spring	-14369
▁basement	-14370
▁activated	-14371
▁ancestors	-14372
▁lesbian	-14373
▁substit	-14374
▁monuments	-14375
▁Petersburg	-14376
▁collective	-14377
▁barb	-14378
▁blog	-14379
▁Dayton	-14380
▁unders	-14381
▁Aircraft	-14382
sa	-14383
▁Amaz	-14384
▁Diet	-14385
▁gram	-14386
▁Shawn	-14387
▁Metall	-14388
▁Elliott	-14389
oft	-14390
▁depends	-14391
▁Nonetheless	-14392
▁Euro	-14393
▁wors	-14394
agonal	-14395
▁Forbes	-14396
▁Besides	-14397
▁careers	-14398
▁suburbs	-14399
▁adoption	-14400
▁performer	-14401
▁placement	-14402
▁endangered	-14403
▁Wend	-14404
▁Sicily	-14405
▁homage	-14406
▁skiing	-14407
▁Ferrari	-14408
▁amazing	-14409
▁Information	-14410
▁citizenship	-14411
▁hell	-14412
ittees	-14413
▁Bailey	-14414
acco	-14415
▁Chi	-14416
▁Durham	-14417
▁Webber	-14418
▁Scandin	-14419
▁Monument	-14420
▁stopping	-14421
▁concluding	-14422
▁HV	-14423
▁Raf	-14424
▁ank	-14425
▁rer	-14426
▁mere	-14427
▁rode	-14428
▁Omaha	-14429
▁spont	-14430
▁barracks	-14431
▁regulation	-14432
▁mathematical	-14433
itory	-14434
▁1820	-14435
▁Coul	-14436
▁Pend	-14437
▁Lodge	-14438
▁Galile	-14439
▁underm	-14440
▁Economic	-14441
▁SMS	-14442
▁Humph	-14443
▁Singh	-14444
▁meteor	-14445
▁favoured	-14446
▁reliable	-14447
▁motivated	-14448
▁varieties	-14449
auer	-14450
▁147	-14451
▁Gav	-14452
▁Kot	-14453
▁ESPN	-14454
▁Hugo	-14455
▁annoy	-14456
▁alumin	-14457
▁insect	-14458
▁denomin	-14459
▁runners	-14460
▁visuals	-14461
▁Engineers	-14462
▁Volt	-14463
▁countryside	-14464
▁BM	-14465
cope	-14466
ente	-14467
▁Resp	-14468
▁ears	-14469
▁Strait	-14470
▁worlds	-14471
▁bishops	-14472
▁Historian	-14473
▁commended	-14474
▁dinosaurs	-14475
▁departments	-14476
zym	-14477
▁Dy	-14478
▁fut	-14479
▁gren	-14480
▁Anders	-14481
▁goalkeeper	-14482
cat	-14483
▁oz	-14484
▁Block	-14485
▁Given	-14486
▁McMah	-14487
▁Model	-14488
▁botan	-14489
▁semif	-14490
uxiliary	-14491
▁unhappy	-14492
▁colleague	-14493
▁organisations	-14494
▁Lope	-14495
esters	-14496
▁Train	-14497
▁solve	-14498
▁worksh	-14499
▁Gardner	-14500
▁millimeter	-14501
▁watches	-14502
▁receiver	-14503
▁seasonal	-14504
▁slot	-14505
▁Austen	-14506
▁subsid	-14507
▁puzzles	-14508
▁governed	-14509
▁reconcil	-14510
▁democracy	-14511
▁satisfied	-14512
▁reflecting	-14513
audi	-14514
▁Pitt	-14515
▁dign	-14516
iblings	-14517
▁binding	-14518
▁Moreover	-14519
▁dominance	-14520
▁Philippine	-14521
▁installment	-14522
▁Bog	-14523
adoes	-14524
▁Birth	-14525
▁Maple	-14526
▁Mumbai	-14527
▁Bahamas	-14528
▁Assistant	-14529
▁specified	-14530
▁accelerated	-14531
PC	-14532
olo	-14533
▁je	-14534
▁Cros	-14535
retion	-14536
▁stuck	-14537
▁Caesar	-14538
▁talked	-14539
▁fortune	-14540
▁inherit	-14541
▁rehabil	-14542
▁eccentric	-14543
rock	-14544
▁Ana	-14545
▁cheap	-14546
▁Monica	-14547
▁phases	-14548
▁Canberra	-14549
▁woodland	-14550
▁diagnosis	-14551
▁terrestrial	-14552
▁correspondence	-14553
nae	-14554
nam	-14555
▁IX	-14556
osal	-14557
armed	-14558
▁fails	-14559
▁Prussia	-14560
▁borrowed	-14561
▁averaging	-14562
▁observers	-14563
rav	-14564
inate	-14565
▁cott	-14566
luence	-14567
▁Angela	-14568
▁Ruther	-14569
▁Democrat	-14570
▁goaltend	-14571
▁explicitly	-14572
▁incorporating	-14573
fold	-14574
▁sid	-14575
▁1854	-14576
estock	-14577
▁lingu	-14578
▁theor	-14579
▁maritime	-14580
iasm	-14581
ithm	-14582
▁guid	-14583
▁Lopez	-14584
▁Priest	-14585
▁clever	-14586
▁downed	-14587
▁exagger	-14588
▁silence	-14589
▁activist	-14590
▁isotopes	-14591
▁persisted	-14592
▁Lag	-14593
iatus	-14594
sover	-14595
▁1857	-14596
▁Rovers	-14597
unciation	-14598
▁Snake	-14599
▁juvenile	-14600
▁siblings	-14601
▁frustrated	-14602
▁businessman	-14603
elda	-14604
▁Giant	-14605
▁backd	-14606
▁leaked	-14607
▁Concord	-14608
▁cluster	-14609
▁exhibits	-14610
▁performs	-14611
onde	-14612
▁Lav	-14613
▁Lil	-14614
▁NME	-14615
▁Sha	-14616
▁stip	-14617
▁Syrian	-14618
▁Pearson	-14619
▁ensured	-14620
▁remarks	-14621
▁charting	-14622
▁detachment	-14623
lass	-14624
▁Kos	-14625
▁ram	-14626
▁MacL	-14627
▁Wong	-14628
▁evol	-14629
▁Aires	-14630
▁Plate	-14631
▁valued	-14632
▁boarding	-14633
▁Distribution	-14634
▁configuration	-14635
agedy	-14636
▁Diana	-14637
▁morale	-14638
▁precurs	-14639
▁conductor	-14640
▁ecosystem	-14641
▁shortened	-14642
▁Myc	-14643
▁cler	-14644
▁orbits	-14645
▁Hamburg	-14646
▁Recreation	-14647
▁presenting	-14648
DT	-14649
▁FC	-14650
▁ps	-14651
▁lod	-14652
arity	-14653
▁Wilm	-14654
▁Lions	-14655
▁Oppen	-14656
▁Eagles	-14657
▁anthrop	-14658
▁sounded	-14659
iri	-14660
▁Sau	-14661
ctive	-14662
▁Tell	-14663
▁Wang	-14664
▁buses	-14665
▁steal	-14666
▁mineral	-14667
▁disagreed	-14668
▁Kann	-14669
▁boom	-14670
▁erup	-14671
▁trilogy	-14672
▁avoiding	-14673
▁intentions	-14674
▁Pix	-14675
▁cit	-14676
ishna	-14677
▁Jazz	-14678
▁Tampa	-14679
▁Newark	-14680
▁Duchess	-14681
▁variants	-14682
the	-14683
ovan	-14684
▁Smy	-14685
avity	-14686
ovakia	-14687
▁drift	-14688
▁Joshua	-14689
▁aliens	-14690
▁slopes	-14691
▁Engineer	-14692
▁expelled	-14693
oufl	-14694
xter	-14695
▁Ster	-14696
▁mast	-14697
cliffe	-14698
▁Jesse	-14699
▁unity	-14700
iblical	-14701
▁Volume	-14702
▁anchor	-14703
▁median	-14704
▁develops	-14705
▁immigration	-14706
▁descriptions	-14707
▁northeastward	-14708
ệm	-14709
ław	-14710
rina	-14711
▁tyr	-14712
▁Diệm	-14713
▁Duck	-14714
▁tier	-14715
aunton	-14716
▁Playing	-14717
▁reunited	-14718
▁poisoning	-14719
▁née	-14720
▁trump	-14721
▁Holden	-14722
▁immune	-14723
▁lowered	-14724
▁orbital	-14725
▁determination	-14726
ride	-14727
▁Franç	-14728
▁portrays	-14729
▁steering	-14730
▁Aven	-14731
▁Pont	-14732
▁sanct	-14733
▁regain	-14734
▁Neither	-14735
▁outlets	-14736
▁bure	-14737
▁Beast	-14738
▁Compton	-14739
▁screened	-14740
▁afterward	-14741
▁Cyp	-14742
▁bicy	-14743
▁imper	-14744
▁rises	-14745
▁scripts	-14746
▁organize	-14747
▁persuade	-14748
▁satisfact	-14749
▁foundations	-14750
▁Kay	-14751
▁hipp	-14752
▁mall	-14753
▁depot	-14754
▁saves	-14755
▁Hallow	-14756
▁Destiny	-14757
▁doubled	-14758
▁retiring	-14759
▁superhero	-14760
▁prominence	-14761
▁Ré	-14762
▁Zh	-14763
▁Creat	-14764
▁accent	-14765
▁bowler	-14766
▁larvae	-14767
▁strain	-14768
▁cinemat	-14769
▁Lac	-14770
▁rav	-14771
▁Pand	-14772
▁lean	-14773
▁Adult	-14774
▁drops	-14775
▁frigates	-14776
▁overhaul	-14777
▁shelters	-14778
▁inability	-14779
▁attributes	-14780
▁continuously	-14781
▁Environmental	-14782
▁Shir	-14783
▁silk	-14784
▁Rhine	-14785
▁dreams	-14786
itational	-14787
▁chambers	-14788
▁primitive	-14789
▁adventures	-14790
grim	-14791
▁inev	-14792
▁Savage	-14793
▁bigger	-14794
▁freely	-14795
▁tailed	-14796
▁Concert	-14797
isch	-14798
riet	-14799
enary	-14800
▁Core	-14801
▁Hannah	-14802
onscious	-14803
▁Knowles	-14804
▁	-14805
e	-14806
t	-14807
a	-14808
n	-14809
i	-14810
o	-14811
r	-14812
s	-14813
h	-14814
l	-14815
d	-14816
c	-14817
u	-14818
m	-14819
f	-14820
g	-14821
p	-14822
w	-14823
y	-14824
b	-14825
,	-14826
.	-14827
v	-14828
k	-14829
@	-14830
1	-14831
T	-14832
0	-14833
S	-14834
A	-14835
=	-14836
"	-14837
C	-14838
M	-14839
2	-14840
B	-14841
I	-14842
'	-14843
9	-14844
-	-14845
H	-14846
P	-14847
x	-14848
D	-14849
R	-14850
F	-14851
W	-14852
L	-14853
N	-14854
G	-14855
)	-14856
(	-14857
3	-14858
5	-14859
8	-14860
E	-14861
J	-14862
4	-14863
O	-14864
>	-14865
<	-14866
6	-14867
7	-14868
z	-14869
j	-14870
q	-14871
K	-14872
U	-14873
V	-14874
;	-14875
–	-14876
:	-14877
Y	-14878
/	-14879
—	-14880
Z	-14881
$	-14882
Q	-14883
é	-14884
]	-14885
[	-14886
%	-14887
X	-14888
&	-14889
’	-14890
!	-14891
á	-14892
°	-14893
?	-14894
£	-14895
í	-14896
ö	-14897
ü	-14898
ó	-14899
+	-14900
ć	-14901
ō	-14902
è	-14903
#	-14904
−	-14905
ä	-14906
[...]
